<unk>	0
<s>	0
</s>	0
▁the	-3.09957
,	-3.29672
▁of	-3.53151
.	-3.7649
s	-3.83714
▁and	-3.93371
▁(	-4.0835
▁in	-4.14344
▁to	-4.20404
▁a	-4.29108
-	-4.36584
▁was	-4.42613
)	-4.50356
▁	-4.51804
▁is	-4.93117
'	-4.95441
▁as	-5.03971
▁that	-5.31915
▁by	-5.36713
▁no	-5.43426
ing	-5.43763
▁for	-5.43969
ed	-5.51655
▁he	-5.54014
▁on	-5.5514
▁with	-5.59846
▁The	-5.61927
▁'	-5.6492
▁from	-5.67874
▁his	-5.74298
a	-5.75221
▁"	-5.76589
▁it	-5.80481
▁were	-5.82735
▁In	-5.83146
),	-5.85923
).	-5.88572
▁which	-5.92081
▁at	-5.92738
"	-5.94376
▁who	-5.9586
ji	-6.01353
e	-6.02437
d	-6.05342
▁are	-6.11665
▁be	-6.15336
▁an	-6.1776
▁or	-6.18924
▁He	-6.20835
▁period	-6.22246
the	-6.28103
ly	-6.29207
:	-6.29576
in	-6.30023
i	-6.31125
▁family	-6.35256
o	-6.36069
t	-6.3723
▁Emperor	-6.38114
▁had	-6.38489
▁It	-6.40166
▁not	-6.41187
▁but	-6.41969
shi	-6.42544
▁this	-6.42928
ko	-6.44282
▁Kyoto	-6.45341
▁clan	-6.46713
n	-6.47964
▁also	-6.48178
▁Temple	-6.54725
no	-6.55494
ri	-6.56666
▁Province	-6.59222
▁called	-6.61151
▁Japan	-6.62325
▁A	-6.62366
jo	-6.63723
▁became	-6.66216
▁after	-6.66218
▁name	-6.67697
▁Imperial	-6.67729
▁one	-6.69098
▁City	-6.7092
to	-6.74123
er	-6.75783
do	-6.7643
ki	-6.79288
y	-6.79539
▁O	-6.79648
▁such	-6.79868
al	-6.80053
▁been	-6.8094
▁Japanese	-6.81928
▁used	-6.83982
th	-6.85063
r	-6.85207
▁have	-6.86067
sho	-6.86512
▁Prefecture	-6.86681
re	-6.88549
▁when	-6.88953
;	-6.8906
▁Ko	-6.91331
▁time	-6.92942
▁there	-6.9376
▁so	-6.93947
se	-6.96021
▁son	-6.99595
ku	-7.01028
ra	-7.02217
▁their	-7.02337
mi	-7.02718
▁other	-7.03181
▁they	-7.0519
go	-7.0691
▁into	-7.07663
▁during	-7.07898
ro	-7.08148
▁His	-7.08444
▁-	-7.08448
▁made	-7.09658
▁government	-7.09744
ta	-7.10325
▁Edo	-7.10325
▁Station	-7.10559
▁has	-7.10643
▁first	-7.11386
cho	-7.12065
▁I	-7.15388
c	-7.15623
u	-7.17053
an	-7.17213
▁On	-7.17422
▁people	-7.18264
ma	-7.18605
▁said	-7.18739
es	-7.19954
▁However	-7.205
ya	-7.21127
or	-7.21602
ka	-7.23661
st	-7.24565
shu	-7.26219
m	-7.2631
▁year	-7.27904
p	-7.28
tsu	-7.28144
▁because	-7.30175
▁Prince	-7.30221
en	-7.30632
ru	-7.30666
chi	-7.31293
me	-7.31725
▁its	-7.3305
▁under	-7.33285
▁between	-7.33313
▁Sho	-7.33487
b	-7.34419
I	-7.34953
▁head	-7.35291
da	-7.35601
ga	-7.36457
gi	-7.36789
▁system	-7.38086
▁This	-7.38831
▁re	-7.39896
▁Shrine	-7.40185
g	-7.41271
▁same	-7.41564
▁only	-7.43173
▁out	-7.44095
ke	-7.45625
na	-7.45642
yo	-7.45882
▁some	-7.46172
▁After	-7.46197
▁her	-7.4715
▁many	-7.47221
bu	-7.47229
ne	-7.47478
te	-7.48331
▁To	-7.48494
▁two	-7.48494
so	-7.48745
ho	-7.49046
l	-7.49177
▁about	-7.50155
▁up	-7.50269
▁over	-7.50472
kan	-7.50509
▁So	-7.51296
mon	-7.5181
ation	-7.52619
▁later	-7.52699
▁died	-7.53375
▁school	-7.55005
▁FUJIWARA	-7.55118
▁years	-7.56262
▁16	-7.57011
▁part	-7.57501
▁Castle	-7.57727
▁15	-7.58242
le	-7.58321
yama	-7.58785
fu	-7.59388
kyo	-7.59546
▁court	-7.59928
.'	-7.61166
▁Ka	-7.61361
▁him	-7.61839
k	-7.62236
zu	-7.62533
▁where	-7.62693
▁can	-7.63089
▁established	-7.63199
O	-7.63633
▁order	-7.63668
ba	-7.63701
▁well	-7.63834
▁father	-7.64345
ion	-7.64542
▁Rank	-7.64551
▁temple	-7.65278
▁all	-7.65393
▁As	-7.65437
The	-7.65824
▁position	-7.66164
ge	-7.66384
A	-7.66473
su	-7.66686
▁them	-7.66834
▁death	-7.66922
wa	-7.67044
gu	-7.68487
▁Ho	-7.68576
▁old	-7.694
dai	-7.70406
mo	-7.70836
▁11	-7.70841
▁known	-7.71054
▁de	-7.71123
▁bakufu	-7.71559
▁written	-7.71568
▁daughter	-7.71869
▁than	-7.7205
▁Buddhist	-7.72062
ll	-7.72857
▁three	-7.74131
▁area	-7.74204
▁rank	-7.74381
▁Taka	-7.74515
▁being	-7.75231
▁Go	-7.75396
zo	-7.75525
ic	-7.75538
▁18	-7.75793
▁she	-7.75827
▁Shin	-7.76144
shin	-7.76403
den	-7.76683
▁held	-7.76916
▁second	-7.77555
de	-7.77598
on	-7.77832
▁Line	-7.78394
▁There	-7.79036
▁appointed	-7.79037
▁including	-7.79058
▁those	-7.79075
▁army	-7.79437
bi	-7.79644
▁style	-7.80278
▁age	-7.81091
▁War	-7.81223
▁Kamakura	-7.81287
▁line	-7.81749
ha	-7.8236
▁around	-7.82516
kai	-7.82659
▁end	-7.82768
bo	-7.82823
▁while	-7.82859
▁12	-7.83006
▁Court	-7.83038
▁17	-7.83103
be	-7.83146
ju	-7.84274
ment	-7.84468
▁side	-7.84533
▁U	-7.84659
it	-7.84736
▁since	-7.84881
Japanese	-7.85054
▁Shi	-7.85205
▁served	-7.85489
▁post	-7.85891
▁Domain	-7.85953
▁new	-7.86266
▁rice	-7.86342
▁10	-7.86403
ten	-7.86739
▁came	-7.86952
▁Yoshi	-7.87092
▁through	-7.87111
sen	-7.87347
▁13	-7.87352
▁lord	-7.88106
w	-7.88316
▁then	-7.88822
ryo	-7.88906
gawa	-7.90136
f	-7.90266
jin	-7.90597
▁military	-7.90708
▁E	-7.90794
/	-7.91381
▁power	-7.91536
▁given	-7.91807
▁priest	-7.92512
▁located	-7.92914
▁Osaka	-7.93623
▁following	-7.93655
▁took	-7.93945
▁7	-7.94038
▁Meiji	-7.94334
▁however	-7.94372
sha	-7.94638
▁Nara	-7.94726
sei	-7.9479
▁more	-7.95214
▁MINAMOTO	-7.95414
▁down	-7.96433
▁sect	-7.96504
▁Dai	-7.96791
▁[	-7.96974
▁place	-7.96979
▁due	-7.97025
▁each	-7.97134
▁Ku	-7.97433
▁did	-7.97581
▁early	-7.97752
▁Heian	-7.98019
▁before	-7.9814
▁official	-7.98338
▁like	-7.9895
▁Ki	-7.9899
▁When	-7.98996
▁Mi	-8.00319
san	-8.00418
▁various	-8.00498
▁war	-8.0142
▁considered	-8.01422
▁based	-8.0159
ce	-8.01854
▁left	-8.01926
▁San	-8.02154
▁brother	-8.0252
▁1	-8.02648
▁day	-8.02933
jinja	-8.0352
▁region	-8.03606
▁station	-8.03632
▁Palace	-8.03835
li	-8.04023
ry	-8.04636
▁Chinese	-8.04655
ni	-8.05095
▁back	-8.05134
▁wife	-8.05311
▁Kan	-8.05648
yu	-8.05729
▁person	-8.05896
la	-8.06034
mu	-8.06198
▁use	-8.06509
▁would	-8.06518
▁No	-8.06721
▁14	-8.0699
▁shogun	-8.07242
▁Ward	-8.07495
lo	-8.08395
ng	-8.08616
▁even	-8.09017
▁go	-8.0912
gen	-8.09246
▁main	-8.09555
▁mother	-8.09824
▁number	-8.09956
▁imperial	-8.10007
▁Jo	-8.10089
h	-8.10324
▁local	-8.10343
▁theory	-8.10444
▁At	-8.10485
▁sho	-8.10715
▁Tokyo	-8.10899
sai	-8.11171
man	-8.11259
Junior	-8.11361
▁against	-8.11426
▁started	-8.11593
▁era	-8.12043
▁title	-8.12189
U	-8.12476
▁land	-8.13002
▁these	-8.13188
▁Sa	-8.13419
▁shrine	-8.13732
,"	-8.13824
hi	-8.14069
▁himself	-8.14113
▁c	-8.14206
il	-8.1442
▁could	-8.14455
▁do	-8.14672
able	-8.14717
▁8	-8.15123
▁Do	-8.15256
▁high	-8.15412
▁samurai	-8.15503
▁Although	-8.16302
tai	-8.16482
▁Su	-8.16597
▁built	-8.16799
▁Fu	-8.16982
▁fact	-8.1719
▁School	-8.17561
▁both	-8.17883
▁April	-8.17909
▁long	-8.18385
▁March	-8.18661
▁F	-8.18746
▁among	-8.1884
▁feudal	-8.18922
po	-8.18957
za	-8.19629
▁went	-8.19741
▁kami	-8.19833
▁Ma	-8.19878
gyo	-8.20399
S	-8.20496
at	-8.20695
▁un	-8.21243
ers	-8.21286
▁Buddhism	-8.21922
▁hand	-8.22108
▁emperor	-8.22161
ur	-8.22265
▁con	-8.22543
▁present	-8.22614
▁former	-8.2262
▁way	-8.22689
▁born	-8.2285
▁addition	-8.2295
▁become	-8.23262
yoshi	-8.2337
E	-8.23415
gaku	-8.23493
ity	-8.24007
ve	-8.24013
▁Ji	-8.24136
▁According	-8.24265
▁e	-8.24471
ch	-8.24924
▁book	-8.25003
▁Tada	-8.25033
▁tea	-8.25262
▁China	-8.25326
▁Ta	-8.25815
▁battle	-8.26044
▁January	-8.26262
▁form	-8.26303
▁For	-8.26354
▁adopted	-8.26578
▁P	-8.2666
▁group	-8.26703
ti	-8.26925
▁above	-8.27115
▁Sei	-8.27139
▁Ya	-8.27398
vi	-8.27978
▁o	-8.28
▁often	-8.28343
ent	-8.28511
nin	-8.28626
▁ancient	-8.28636
▁Masa	-8.2877
▁state	-8.28936
▁section	-8.29025
ar	-8.29041
▁C	-8.29061
▁Mt	-8.2912
moto	-8.29285
▁ceremony	-8.29312
▁S	-8.29387
▁different	-8.29439
un	-8.29462
▁Ten	-8.29969
▁work	-8.30067
dori	-8.30742
▁f	-8.30859
3	-8.31029
▁Shu	-8.31244
ver	-8.31798
▁July	-8.31823
▁most	-8.32059
▁October	-8.32189
▁times	-8.32422
▁domain	-8.32514
ted	-8.33256
▁large	-8.33425
▁third	-8.33622
▁century	-8.33927
▁9	-8.34254
▁6	-8.34686
▁Wa	-8.34734
▁until	-8.34834
▁May	-8.34859
▁Yu	-8.35334
ive	-8.35503
▁Railway	-8.35537
▁Re	-8.36082
▁without	-8.36114
▁chief	-8.36515
literally	-8.36553
ated	-8.36652
▁Kai	-8.36795
▁changed	-8.36842
age	-8.36855
▁sake	-8.36893
▁koku	-8.3699
▁Hideyoshi	-8.37508
▁days	-8.37836
▁2	-8.37858
▁ko	-8.37902
."	-8.38279
el	-8.38325
▁result	-8.38436
▁August	-8.38466
zen	-8.3849
▁Nobunaga	-8.38714
▁February	-8.38804
▁Buddha	-8.38815
kata	-8.38858
mori	-8.38909
▁office	-8.39112
zan	-8.39137
▁set	-8.39181
▁Co	-8.39257
▁University	-8.39313
▁Ju	-8.39378
▁history	-8.39684
▁if	-8.39689
ie	-8.4023
▁means	-8.40435
▁will	-8.40493
▁Shinto	-8.40579
koku	-8.40784
ist	-8.40874
▁Grade	-8.41017
he	-8.41034
▁make	-8.41174
▁Period	-8.41224
▁Tsu	-8.41231
NO	-8.41276
▁began	-8.41351
▁along	-8.4137
▁four	-8.41601
ary	-8.41626
▁December	-8.41663
▁September	-8.41896
▁capital	-8.42063
mp	-8.42082
▁Tai	-8.42219
ck	-8.42269
▁p	-8.42382
▁right	-8.42388
▁another	-8.42468
machi	-8.42719
9	-8.42747
▁Muromachi	-8.42966
▁Sen	-8.42974
▁Yo	-8.43015
▁great	-8.43066
▁child	-8.43073
▁should	-8.43213
mura	-8.43242
▁others	-8.43341
▁water	-8.43461
ryu	-8.43523
▁using	-8.43807
▁residence	-8.43845
▁general	-8.43956
▁term	-8.44469
chu	-8.44792
▁Kin	-8.44866
▁lived	-8.44889
▁birth	-8.45215
▁TOKUGAWA	-8.4524
▁unknown	-8.45441
▁3	-8.45467
▁Sada	-8.45644
▁National	-8.45681
▁November	-8.45726
suke	-8.45737
▁An	-8.45767
▁castle	-8.46179
lu	-8.46369
▁hall	-8.46563
▁life	-8.46804
v	-8.46816
▁Battle	-8.47086
▁dis	-8.47306
▁River	-8.47419
▁En	-8.47554
▁temples	-8.47731
▁Naga	-8.47877
▁man	-8.47905
shiki	-8.48013
N	-8.48031
▁Ha	-8.48077
▁Gen	-8.48179
▁statue	-8.48188
▁younger	-8.48202
ter	-8.48224
▁June	-8.48234
▁found	-8.48287
▁sa	-8.48362
C	-8.48568
naga	-8.48647
▁together	-8.48722
ward	-8.48836
Ko	-8.48904
▁Yamato	-8.48981
▁service	-8.49051
▁promoted	-8.4915
x	-8.4936
▁thought	-8.49518
▁late	-8.49753
▁own	-8.4978
kei	-8.49942
ir	-8.49947
▁important	-8.50116
▁Uji	-8.50192
▁world	-8.50358
▁Cho	-8.50463
▁Zen	-8.50465
▁members	-8.50509
▁member	-8.50635
shima	-8.50681
taka	-8.50731
▁Hon	-8.50752
▁families	-8.50879
ichi	-8.51452
co	-8.51692
▁Ken	-8.51716
▁trains	-8.51904
▁original	-8.52086
▁away	-8.52351
ance	-8.52515
ci	-8.5255
▁Empress	-8.52692
roku	-8.52706
rin	-8.52749
▁Gon	-8.52808
▁Yasu	-8.52854
▁take	-8.53103
▁put	-8.5324
▁ASHIKAGA	-8.53252
▁national	-8.53409
▁believed	-8.53428
▁Shige	-8.54235
▁house	-8.54393
masa	-8.54426
▁still	-8.5443
ting	-8.54573
di	-8.54902
▁led	-8.54906
ken	-8.5497
▁She	-8.55129
▁Kyo	-8.55182
▁train	-8.55423
▁having	-8.5551
▁according	-8.55516
▁Moto	-8.55632
▁calendar	-8.5564
▁control	-8.55713
ban	-8.55718
gan	-8.5582
▁ho	-8.56188
▁daimyo	-8.56394
▁received	-8.56777
▁public	-8.57108
▁political	-8.57381
▁half	-8.57473
myo	-8.57611
▁front	-8.5763
DA	-8.57704
▁described	-8.57905
gun	-8.5805
▁Since	-8.58087
▁you	-8.5827
▁master	-8.58567
▁19	-8.58596
▁building	-8.58706
ty	-8.58851
▁succeeded	-8.59056
▁Street	-8.59332
00	-8.60057
▁children	-8.60065
▁Sai	-8.60133
hito	-8.60188
kuni	-8.60251
kawa	-8.60256
▁role	-8.60586
▁country	-8.60825
▁branch	-8.60831
▁Ieyasu	-8.61011
▁charge	-8.61048
▁Hi	-8.61173
▁example	-8.6143
▁Nobu	-8.61555
kaku	-8.61582
▁Shogun	-8.6183
▁Omi	-8.61888
▁historical	-8.6192
▁sent	-8.61929
▁Mitsu	-8.61963
ei	-8.62103
▁moved	-8.62634
tu	-8.62669
▁five	-8.62695
▁common	-8.62843
▁fire	-8.62892
min	-8.62913
▁any	-8.6294
▁named	-8.63041
▁small	-8.63325
]	-8.63406
▁B	-8.63952
hime	-8.64021
▁Nishi	-8.64205
pp	-8.64205
▁ten	-8.64219
▁view	-8.64291
nomiya	-8.64454
▁killed	-8.6461
▁Na	-8.64887
▁governor	-8.64898
▁Naka	-8.64951
▁Genji	-8.65061
▁5	-8.65312
▁They	-8.65464
▁Yoritomo	-8.65765
▁site	-8.65766
hira	-8.65916
▁shrines	-8.66016
ate	-8.6619
▁di	-8.66195
Ka	-8.6632
▁pro	-8.66376
▁Mori	-8.66412
▁real	-8.6654
▁within	-8.66756
▁Se	-8.66781
tic	-8.66957
▁Dur	-8.67219
TA	-8.67326
▁good	-8.67363
▁traditional	-8.67729
▁story	-8.67756
▁class	-8.68006
▁included	-8.68016
day	-8.68034
▁Bu	-8.68144
▁Minister	-8.68163
▁placed	-8.68398
R	-8.68672
▁very	-8.69011
ous	-8.69057
et	-8.69183
▁performed	-8.69216
▁popular	-8.69266
▁passed	-8.69396
▁god	-8.69527
▁gave	-8.69568
yaku	-8.69968
▁middle	-8.70002
▁close	-8.70387
▁Chi	-8.70561
▁word	-8.70712
▁Tokugawa	-8.70931
G	-8.71057
▁returned	-8.71083
▁case	-8.71217
):	-8.71226
▁Also	-8.71253
P	-8.71271
ct	-8.7143
KI	-8.71931
▁TAIRA	-8.72216
▁Therefore	-8.72216
pe	-8.72485
ant	-8.72552
▁4	-8.72556
▁last	-8.72562
▁music	-8.72926
To	-8.72996
▁type	-8.73027
▁produced	-8.73056
mono	-8.73485
▁designated	-8.73833
▁Yori	-8.73934
Senior	-8.74023
▁hi	-8.74039
▁seen	-8.74127
tor	-8.74179
▁County	-8.74222
son	-8.743
▁issued	-8.74454
▁Bus	-8.74513
▁Ni	-8.74521
▁next	-8.74639
▁Hiro	-8.74678
▁areas	-8.74711
▁art	-8.74721
mei	-8.74802
ally	-8.74883
▁created	-8.75008
▁lost	-8.75111
ized	-8.75342
ness	-8.75363
mitsu	-8.75431
ring	-8.75634
▁Lower	-8.75793
▁Ise	-8.75797
dan	-8.76358
▁Dynasty	-8.76459
▁Han	-8.7652
▁originally	-8.76734
▁referred	-8.76862
ron	-8.76931
NA	-8.77049
▁paper	-8.77168
▁Southern	-8.77222
▁1,	-8.77434
one	-8.77484
▁origin	-8.77505
▁special	-8.77549
▁north	-8.7757
men	-8.77591
▁Princess	-8.77599
▁famous	-8.77875
▁Aki	-8.78009
rs	-8.78015
▁mountain	-8.78019
▁sword	-8.78073
▁developed	-8.78108
ism	-8.7824
▁again	-8.78349
▁business	-8.78414
4	-8.78465
▁may	-8.78628
ca	-8.78667
▁shi	-8.78827
▁modern	-8.78856
▁ka	-8.7894
▁mainly	-8.79002
hara	-8.79003
kyu	-8.79041
ad	-8.79196
est	-8.79322
▁refers	-8.79324
▁relationship	-8.79342
▁sometimes	-8.79449
▁names	-8.79586
red	-8.79743
▁works	-8.79792
nobu	-8.7981
nori	-8.79827
▁entered	-8.80022
▁W	-8.80027
▁construction	-8.8004
▁etc	-8.80058
yasu	-8.80285
▁Northern	-8.80548
▁reason	-8.80689
7	-8.80851
▁territory	-8.81061
▁today	-8.81148
Shi	-8.8125
▁Korea	-8.81378
▁law	-8.81391
▁noble	-8.81866
▁therefore	-8.81887
▁fu	-8.8204
▁making	-8.82048
▁books	-8.82282
▁Sect	-8.82371
▁Ri	-8.82561
▁Kei	-8.82607
▁Matsu	-8.82613
▁gate	-8.82657
pi	-8.82661
▁off	-8.82706
▁Kami	-8.82738
▁poems	-8.82941
▁Ryo	-8.83146
▁method	-8.833
▁young	-8.83378
▁just	-8.83455
nd	-8.83635
▁Ro	-8.83647
▁Mo	-8.83679
▁ha	-8.83703
▁Taira	-8.83913
▁forces	-8.84311
yori	-8.84402
▁headed	-8.84447
▁shogunate	-8.84799
▁south	-8.84819
▁Hall	-8.85029
▁attack	-8.85142
▁center	-8.85317
fusa	-8.85411
▁ma	-8.8553
Kyoto	-8.85545
▁food	-8.85701
led	-8.85846
▁east	-8.86173
yuki	-8.86217
▁now	-8.86566
▁Kuni	-8.86646
bon	-8.86712
tsuna	-8.86794
▁image	-8.86904
as	-8.87075
2	-8.87234
ling	-8.87344
▁stop	-8.87377
▁once	-8.87402
▁city	-8.87539
▁Later	-8.87658
bun	-8.87702
▁town	-8.8772
▁Mu	-8.87764
▁Toshi	-8.87835
▁stone	-8.87853
▁retainer	-8.88169
▁ODA	-8.88229
M	-8.88524
▁character	-8.88576
▁Tomo	-8.8862
▁continued	-8.88922
▁Chu	-8.89041
michi	-8.89111
▁Ga	-8.89344
▁mo	-8.89385
▁De	-8.89705
va	-8.89749
▁assumed	-8.89918
▁nobles	-8.89973
▁characters	-8.90171
▁troops	-8.90321
▁Kita	-8.90338
▁Kanto	-8.90439
im	-8.90454
▁several	-8.90555
▁House	-8.90565
ven	-8.90835
▁Division	-8.90861
▁home	-8.90895
▁private	-8.9104
▁published	-8.91104
ld	-8.91127
han	-8.91464
▁incident	-8.91601
▁short	-8.91676
▁introduced	-8.91748
▁situation	-8.91786
tsune	-8.9211
oka	-8.92293
▁Ministry	-8.92375
▁Tsune	-8.92634
▁en	-8.9275
ture	-8.92766
8	-8.92867
▁every	-8.92912
YA	-8.92994
▁appeared	-8.93043
▁enshrined	-8.93097
rai	-8.93114
▁Nan	-8.93119
▁commander	-8.9314
▁Museum	-8.93221
ating	-8.93256
▁kan	-8.9345
▁Noh	-8.93553
▁Some	-8.93557
▁played	-8.93685
▁Family	-8.93788
▁Take	-8.93797
present	-8.93972
ful	-8.93972
▁throne	-8.94041
toku	-8.94069
SHI	-8.94069
nari	-8.94362
tsugu	-8.94549
ence	-8.9456
MI	-8.94571
nai	-8.94647
▁Keihan	-8.94667
ze	-8.94712
▁Toki	-8.94732
▁Fifth	-8.9474
tion	-8.94841
▁regarded	-8.94958
▁Cultural	-8.95188
▁status	-8.95252
▁force	-8.95634
▁Michi	-8.95644
▁co	-8.95771
])	-8.95798
▁collection	-8.95832
ship	-8.95875
▁Higashi	-8.95883
T	-8.95973
▁top	-8.95974
▁soldiers	-8.95988
▁pre	-8.96113
▁From	-8.96154
▁culture	-8.96283
▁cultural	-8.96296
▁prince	-8.96354
cha	-8.96356
ja	-8.96363
5	-8.96407
▁Ichi	-8.96427
L	-8.96528
▁Incident	-8.96539
▁beginning	-8.96543
▁strong	-8.96618
▁vassal	-8.96681
▁Hide	-8.96904
▁stage	-8.97
▁Myo	-8.9724
▁se	-8.97372
um	-8.97427
▁room	-8.97531
▁bus	-8.97644
ol	-8.9787
▁Fujiwara	-8.97989
▁west	-8.98266
us	-8.98793
bashi	-8.98794
▁Kyushu	-8.98884
▁instead	-8.99042
▁Sengoku	-8.99188
▁Sane	-8.9921
▁St	-8.99269
aki	-8.99305
hei	-8.99341
▁tax	-8.99671
▁transferred	-8.99718
▁ordered	-8.9973
▁major	-8.99751
▁although	-8.99761
▁allowed	-8.99796
▁meaning	-8.99867
▁Because	-8.99912
▁practice	-9.00083
▁route	-9.00185
Mi	-9.00426
▁palace	-9.00451
D	-9.00487
▁retired	-9.00668
▁similar	-9.00721
▁Kiyo	-9.00849
che	-9.00871
▁dance	-9.00968
▁founded	-9.00993
▁body	-9.01018
▁influence	-9.01031
▁KA	-9.01037
am	-9.01052
rei	-9.01101
Ha	-9.01103
▁bo	-9.01368
▁color	-9.01441
matsu	-9.01503
▁sea	-9.0156
▁20	-9.01619
▁officials	-9.02003
▁cases	-9.02046
▁taken	-9.02069
▁Nori	-9.02081
▁Tang	-9.021
▁brought	-9.02222
▁One	-9.02297
▁Guards	-9.02341
con	-9.0239
▁Iwa	-9.02392
ial	-9.02505
ren	-9.02529
side	-9.02752
▁meters	-9.02933
▁Office	-9.02939
▁Western	-9.0312
fi	-9.03189
▁Man	-9.0323
ction	-9.03279
▁study	-9.03594
▁road	-9.0376
▁joined	-9.03767
▁fourth	-9.03804
dera	-9.03958
▁men	-9.04015
▁Jin	-9.04021
guchi	-9.04027
▁record	-9.04031
▁village	-9.04054
less	-9.04065
▁Ei	-9.04113
▁retainers	-9.04228
▁t	-9.04235
▁ex	-9.04386
katsu	-9.04444
▁Festival	-9.0487
▁countries	-9.04942
1	-9.0495
Sa	-9.05016
tra	-9.05193
▁Suke	-9.05242
MURA	-9.05462
▁kind	-9.0565
▁founder	-9.05678
▁mi	-9.05797
ish	-9.05852
▁opened	-9.05904
shige	-9.05918
maro	-9.0599
▁related	-9.06089
▁mentioned	-9.06138
▁wrote	-9.06149
▁West	-9.0641
▁unit	-9.0644
▁Tale	-9.06485
▁Bun	-9.06686
les	-9.06687
▁Mon	-9.06861
▁com	-9.06938
▁bu	-9.06981
▁places	-9.0709
▁generation	-9.07377
F	-9.07569
▁poetry	-9.07603
▁Gi	-9.07626
▁san	-9.07776
▁custom	-9.07922
maru	-9.07931
ut	-9.07941
▁New	-9.07985
▁wa	-9.08144
▁current	-9.08149
▁Miya	-9.08163
Sho	-9.08243
ure	-9.08284
seki	-9.08358
▁Mune	-9.08391
▁seven	-9.08418
▁religious	-9.08448
▁spread	-9.08537
▁Main	-9.08548
▁plan	-9.08612
▁see	-9.08659
▁Third	-9.08757
▁completed	-9.08833
jiro	-9.08841
▁fought	-9.08977
▁direct	-9.09002
butsu	-9.09124
tada	-9.09229
emon	-9.09288
sui	-9.09369
▁shape	-9.09398
▁defeated	-9.09768
▁amount	-9.0979
▁Yuki	-9.09795
▁TOYOTOMI	-9.09864
▁KO	-9.09865
▁Kane	-9.09937
▁support	-9.09947
▁Road	-9.09959
▁Kannon	-9.10022
style	-9.10047
▁decided	-9.10049
▁Nao	-9.10085
Genji	-9.10253
▁monk	-9.10392
▁me	-9.10423
hon	-9.10492
way	-9.105
▁affairs	-9.10593
tan	-9.10618
▁tried	-9.10655
▁words	-9.10734
▁play	-9.10752
▁Satsuma	-9.10767
▁Yama	-9.108
▁highest	-9.10949
▁Koku	-9.10951
▁Second	-9.11058
▁base	-9.11177
▁point	-9.11232
ration	-9.1125
ian	-9.11286
▁company	-9.11736
▁Route	-9.11741
▁History	-9.11763
▁cho	-9.11764
▁remains	-9.11825
▁organization	-9.11888
▁Great	-9.11891
pu	-9.12066
▁vassals	-9.12182
▁operation	-9.12183
chika	-9.12204
▁materials	-9.12539
▁what	-9.12648
▁Right	-9.12648
si	-9.12828
▁conflict	-9.12877
▁These	-9.13002
▁schools	-9.13025
▁follows	-9.13138
▁lower	-9.13163
▁cha	-9.13194
▁visit	-9.13267
rd	-9.13469
▁festival	-9.1348
ner	-9.13576
▁constructed	-9.13595
▁Korean	-9.13703
uji	-9.13817
▁mid	-9.139
▁painting	-9.13925
▁read	-9.13957
▁Fuji	-9.14086
▁documents	-9.14112
▁deity	-9.14143
,000	-9.1422
ai	-9.14329
YAMA	-9.14427
▁ki	-9.14506
▁Fushimi	-9.14786
▁does	-9.14801
▁consist	-9.14954
▁married	-9.15042
kko	-9.15249
▁shu	-9.15381
▁central	-9.15523
raku	-9.1559
Japan	-9.15608
kami	-9.15628
▁Jodo	-9.15925
▁spring	-9.16071
▁older	-9.16097
▁express	-9.1615
GA	-9.16209
▁movement	-9.1624
Ku	-9.16278
▁process	-9.16293
▁visited	-9.16318
▁raised	-9.16516
▁occurred	-9.16541
▁waka	-9.16589
also	-9.16644
head	-9.16682
▁Saga	-9.16821
▁Ie	-9.16869
▁Ltd	-9.17015
▁conducted	-9.171
▁Sutra	-9.17128
chief	-9.17211
land	-9.17221
▁total	-9.17292
per	-9.17304
▁Left	-9.17417
▁six	-9.17509
▁reign	-9.17575
▁worked	-9.17576
▁carried	-9.176
▁poem	-9.17605
▁women	-9.17662
sh	-9.17689
▁ba	-9.17723
ned	-9.17827
taro	-9.1783
MA	-9.1784
▁fall	-9.17869
▁rule	-9.17918
Shin	-9.17965
▁Be	-9.17996
▁establishment	-9.18008
▁few	-9.18015
▁formed	-9.18058
mai	-9.18163
▁western	-9.18165
Go	-9.18189
ement	-9.18252
▁HOSOKAWA	-9.18299
▁guard	-9.18384
KU	-9.18658
fuku	-9.18678
sada	-9.18805
▁certain	-9.18865
);	-9.19008
▁V	-9.19068
▁already	-9.19109
hiro	-9.19156
and	-9.19311
▁horse	-9.19314
▁Dainagon	-9.19367
▁eight	-9.19421
▁provinces	-9.19469
▁letter	-9.19515
▁latter	-9.19522
take	-9.19554
▁toward	-9.19574
Ho	-9.19645
▁caused	-9.19806
▁garden	-9.20091
▁assigned	-9.20174
old	-9.20215
▁upon	-9.20242
▁per	-9.20252
kin	-9.20288
▁near	-9.20315
▁come	-9.20473
gon	-9.20564
▁Mino	-9.20777
ran	-9.2079
nyo	-9.21041
tori	-9.2107
▁Bo	-9.21113
▁granted	-9.21164
▁Fourth	-9.21277
▁command	-9.2129
▁sister	-9.21499
shiro	-9.21544
▁text	-9.21744
▁policy	-9.21749
gami	-9.21773
▁got	-9.21777
▁ryo	-9.21819
▁include	-9.2189
▁say	-9.2191
▁Ritsuryo	-9.21916
▁While	-9.21916
ster	-9.22116
▁With	-9.22192
▁lords	-9.22345
mune	-9.22365
▁br	-9.22627
pa	-9.22669
▁authority	-9.22695
▁party	-9.22757
nen	-9.22885
▁First	-9.22939
tei	-9.23056
▁taking	-9.23106
▁night	-9.23115
▁production	-9.23116
B	-9.23359
▁JR	-9.23579
Ta	-9.23605
▁change	-9.23623
toshi	-9.23647
nosuke	-9.23754
gata	-9.23788
▁envoy	-9.2386
king	-9.23912
▁fish	-9.23935
▁performance	-9.23956
line	-9.24024
kiyo	-9.24034
mb	-9.24112
shaped	-9.24139
▁date	-9.24189
saka	-9.24218
▁existed	-9.24293
▁Yoshitsune	-9.2434
▁pa	-9.24472
cu	-9.24484
▁Governor	-9.24498
▁divided	-9.24545
▁saying	-9.24564
KA	-9.24577
▁gradually	-9.24804
▁fifth	-9.2482
▁street	-9.2489
▁attacked	-9.25143
▁we	-9.25238
▁generations	-9.25286
▁white	-9.25377
▁money	-9.25409
▁return	-9.25439
▁gods	-9.25783
▁ni	-9.25902
port	-9.2592
▁HOJO	-9.26019
▁Jun	-9.26031
▁district	-9.26064
mae	-9.26108
haru	-9.26297
▁leading	-9.26319
▁Electric	-9.26367
ization	-9.26399
▁hard	-9.26563
▁Kamo	-9.26572
▁province	-9.26641
▁light	-9.26673
Hi	-9.26841
▁volume	-9.26888
▁writing	-9.27158
▁kept	-9.27158
▁Nari	-9.27173
zai	-9.27179
▁ta	-9.27273
▁generally	-9.27318
▁Ne	-9.27521
▁structure	-9.276
▁records	-9.27739
year	-9.27742
ishi	-9.27771
▁subject	-9.2778
Ki	-9.27845
▁po	-9.27853
dy	-9.27876
▁thus	-9.27957
▁added	-9.27961
▁gold	-9.28022
▁abolished	-9.28044
▁Then	-9.28229
▁M	-9.28269
▁woman	-9.28327
▁compiled	-9.28353
▁jo	-9.28464
▁serve	-9.28526
▁studied	-9.28579
▁officer	-9.28619
vo	-9.2867
z	-9.2869
▁Shogunate	-9.28703
maki	-9.2871
▁Monogatari	-9.28758
mochi	-9.28777
gin	-9.2884
▁description	-9.2888
▁much	-9.28886
▁Ge	-9.28887
▁literature	-9.28938
▁railway	-9.29028
▁powerful	-9.2908
▁wooden	-9.29166
Kan	-9.29263
▁TO	-9.29279
ther	-9.29363
▁serving	-9.29432
▁administration	-9.29478
▁Takeda	-9.29661
▁living	-9.2975
Su	-9.29751
▁Year	-9.29755
▁ro	-9.29755
SA	-9.30054
KAWA	-9.30054
▁minister	-9.30173
▁shin	-9.30279
ura	-9.30319
ul	-9.30323
▁Moro	-9.30392
▁get	-9.30511
▁regard	-9.30519
▁priests	-9.30554
▁Crown	-9.30568
qu	-9.30692
hiko	-9.30715
id	-9.30733
▁II	-9.30783
du	-9.30808
▁Pa	-9.3084
▁operated	-9.30891
ies	-9.3097
naka	-9.30994
com	-9.31021
zoku	-9.31025
▁foreign	-9.31059
▁directly	-9.31073
▁development	-9.31317
▁hold	-9.31395
▁red	-9.31514
▁female	-9.3159
10	-9.31717
kura	-9.31724
saki	-9.3188
jima	-9.31905
▁ground	-9.31908
▁Furthermore	-9.31946
▁purpose	-9.31946
▁property	-9.3195
▁followed	-9.32034
later	-9.32069
▁selected	-9.32583
▁Sanjo	-9.32617
▁30	-9.32646
▁ga	-9.32651
▁Restoration	-9.32689
▁State	-9.33043
▁month	-9.33161
▁Kawachi	-9.33217
dono	-9.33363
▁And	-9.3338
H	-9.33419
▁give	-9.33452
▁legend	-9.33532
▁sub	-9.33584
tomo	-9.33681
▁Her	-9.33702
▁Me	-9.33817
for	-9.33819
zumi	-9.33821
uchi	-9.33839
▁eldest	-9.33909
▁trade	-9.3391
ical	-9.33991
row	-9.34192
toki	-9.34253
▁refer	-9.34353
lar	-9.34461
gai	-9.34465
ue	-9.34469
▁KI	-9.34546
▁seems	-9.34593
▁scene	-9.34701
▁inside	-9.34706
▁how	-9.34844
▁Sui	-9.34952
▁regions	-9.34962
hide	-9.3497
▁especially	-9.34978
koji	-9.35045
▁big	-9.35068
▁provincial	-9.35269
nt	-9.35323
RI	-9.35342
▁lineage	-9.35347
ide	-9.35484
▁successor	-9.35548
▁Toyo	-9.35596
val	-9.35629
▁fell	-9.35633
▁heir	-9.35757
▁below	-9.35779
ities	-9.35861
▁lines	-9.3587
▁nation	-9.35997
▁worship	-9.36003
▁foot	-9.3601
▁states	-9.36034
▁councilor	-9.36073
▁supported	-9.36158
36	-9.36172
▁i	-9.36182
zuka	-9.36211
▁na	-9.36214
▁says	-9.36263
▁Land	-9.36311
▁Gyo	-9.36465
▁themselves	-9.3649
▁involved	-9.36587
▁almo	-9.36678
▁Kore	-9.36687
▁itself	-9.36782
▁cut	-9.37063
▁Company	-9.37073
▁Bosatsu	-9.3708
▁research	-9.3714
▁higher	-9.37176
▁G	-9.37179
hisa	-9.37234
▁belonged	-9.37779
▁D	-9.37892
▁usually	-9.37985
▁travel	-9.38052
▁limited	-9.38063
San	-9.38177
▁Nijo	-9.38203
▁asked	-9.38211
▁director	-9.38224
▁Maizuru	-9.38235
▁100	-9.38269
▁exist	-9.38454
▁Tendai	-9.38482
▁oldest	-9.38531
CHI	-9.38608
▁Shugo	-9.38815
▁descendants	-9.38822
▁gr	-9.38999
▁Hongan	-9.39088
▁article	-9.3909
▁low	-9.39131
fa	-9.39195
▁Retired	-9.3924
▁car	-9.39249
")	-9.39326
omi	-9.39424
▁idea	-9.39491
▁author	-9.39503
▁event	-9.39575
op	-9.3959
▁Un	-9.39637
▁Goshirakawa	-9.39639
Dai	-9.39677
W	-9.39747
▁remained	-9.39823
▁su	-9.39849
▁though	-9.39927
▁establish	-9.39972
▁High	-9.40012
▁Tanba	-9.40014
▁Even	-9.40102
▁sauce	-9.40115
?	-9.4014
wi	-9.40275
▁Hira	-9.40373
▁Act	-9.40611
▁my	-9.4064
▁further	-9.40643
▁act	-9.40763
▁social	-9.40947
▁depend	-9.41048
▁dai	-9.41054
que	-9.41092
▁estate	-9.4115
▁World	-9.41251
nu	-9.41257
▁roof	-9.41361
▁Nin	-9.41493
▁season	-9.41657
▁handed	-9.41762
▁field	-9.41792
fer	-9.41828
▁Otsu	-9.42048
lic	-9.4205
▁silver	-9.42067
▁issue	-9.42111
ger	-9.42126
▁Department	-9.42169
▁succession	-9.42185
▁level	-9.42235
ions	-9.42321
▁reform	-9.42338
▁kuni	-9.4234
▁MATSUDAIRA	-9.42374
car	-9.4251
▁Chunagon	-9.42587
▁provided	-9.42601
▁Kata	-9.42754
▁Kabuki	-9.4281
▁poet	-9.42816
▁run	-9.4295
saku	-9.42978
▁Shiga	-9.42996
▁outside	-9.43082
up	-9.431
▁series	-9.43106
▁film	-9.43132
end	-9.43278
▁Ari	-9.43379
▁students	-9.43609
▁drama	-9.43615
▁Town	-9.4364
▁lot	-9.43648
▁originated	-9.4366
▁finally	-9.43705
▁keep	-9.43746
▁grave	-9.43825
▁Household	-9.43829
▁Haru	-9.43979
▁never	-9.44034
▁volumes	-9.44067
▁Kawa	-9.44106
▁whole	-9.44238
zane	-9.44239
▁resigned	-9.44241
▁pass	-9.44276
▁forced	-9.44479
▁sold	-9.44534
▁States	-9.44542
▁length	-9.44555
▁Musashi	-9.4456
▁look	-9.44577
▁throughout	-9.4458
▁ku	-9.44659
Fu	-9.44668
ig	-9.4473
▁natural	-9.44765
▁va	-9.44773
14	-9.44777
ben	-9.44845
▁u	-9.45056
▁Army	-9.45082
▁full	-9.45164
▁buildings	-9.45193
ot	-9.45202
▁statues	-9.45218
▁cars	-9.45266
▁Con	-9.45287
▁Village	-9.45301
▁dynasty	-9.45399
▁Island	-9.45401
leg	-9.45488
▁TA	-9.45608
▁appears	-9.45909
eki	-9.46114
▁paintings	-9.46324
▁face	-9.46368
▁document	-9.4638
▁object	-9.46463
▁tree	-9.46465
setsu	-9.46495
▁But	-9.46549
▁sense	-9.46595
▁fight	-9.46694
▁Kiyomori	-9.46714
▁commonly	-9.46784
▁sen	-9.46789
▁hot	-9.47023
▁sign	-9.47174
TSU	-9.47185
▁tsu	-9.47206
zaemon	-9.47255
▁location	-9.47323
nan	-9.47354
▁li	-9.47392
▁priesthood	-9.47449
▁past	-9.47482
▁show	-9.47496
▁spirit	-9.47561
ition	-9.47572
Ma	-9.476
▁details	-9.47649
▁Inner	-9.4774
▁posts	-9.47833
RA	-9.47874
▁less	-9.47956
▁becoming	-9.48082
▁Affairs	-9.4819
▁Law	-9.48432
▁Oki	-9.48566
▁design	-9.4861
▁elder	-9.48736
▁Amida	-9.48737
70	-9.48794
▁Prefectural	-9.48845
ang	-9.48868
▁course	-9.48879
tter	-9.48889
jingu	-9.48899
miya	-9.49055
▁Mutsu	-9.49062
▁coins	-9.49089
▁suke	-9.49215
▁te	-9.49215
▁Hojo	-9.49312
ral	-9.49409
ight	-9.49428
ex	-9.49455
▁ju	-9.49496
▁standing	-9.49582
JI	-9.49613
▁enemy	-9.49615
▁except	-9.49736
▁MI	-9.4975
58	-9.49774
ory	-9.49836
ow	-9.49836
Minister	-9.49861
▁han	-9.49978
▁respect	-9.49984
called	-9.50099
ble	-9.5015
▁Education	-9.50169
▁Asuka	-9.50182
▁training	-9.50183
▁Bi	-9.50205
▁accepted	-9.5021
0	-9.50222
▁increased	-9.50233
67	-9.50276
▁occasion	-9.50375
▁conferred	-9.50503
▁human	-9.50503
▁sixth	-9.50539
▁activities	-9.50614
▁Kansai	-9.50634
pen	-9.50667
▁Shingon	-9.50897
▁events	-9.50901
▁services	-9.5093
▁Owari	-9.50951
▁port	-9.51
▁board	-9.51026
▁whether	-9.51062
▁persons	-9.51211
▁leader	-9.51219
▁open	-9.51262
▁Kyu	-9.5127
hashi	-9.51363
K	-9.51366
▁Bureau	-9.5145
▁Nyorai	-9.5163
▁clear	-9.51664
▁possible	-9.51736
▁Oda	-9.51759
uta	-9.51822
▁owned	-9.51976
▁male	-9.52041
▁Ryu	-9.52067
13	-9.52085
▁Katsu	-9.52101
▁Nichiren	-9.52196
▁Tame	-9.52207
▁hon	-9.52242
▁ri	-9.52251
▁brothers	-9.52311
mm	-9.5241
▁Moreover	-9.52415
▁independent	-9.52415
▁society	-9.52415
▁Among	-9.52416
▁walk	-9.52423
▁shugo	-9.52445
So	-9.52447
cur	-9.5251
▁Many	-9.52546
▁active	-9.526
goku	-9.52659
▁river	-9.52672
▁pieces	-9.52683
▁Toku	-9.52759
spect	-9.52779
▁Association	-9.5282
oji	-9.5283
▁ra	-9.52982
lt	-9.5299
ified	-9.53001
light	-9.53025
SU	-9.53041
▁might	-9.53107
▁Art	-9.53135
cy	-9.53198
▁If	-9.53276
▁East	-9.5333
▁Takauji	-9.53393
▁inherited	-9.53447
ami	-9.53465
▁Tango	-9.53552
▁northern	-9.53558
lation	-9.53561
▁disciple	-9.53602
▁positions	-9.53614
councilor	-9.53624
▁Kazu	-9.53753
▁eastern	-9.53937
▁required	-9.53952
▁widely	-9.53957
▁du	-9.53999
▁difference	-9.54024
▁Minamoto	-9.54177
Imperial	-9.54324
▁ya	-9.54335
goro	-9.54384
art	-9.544
▁KU	-9.54443
▁fa	-9.54466
▁regent	-9.54487
▁Captain	-9.54497
▁composed	-9.54614
▁gun	-9.54676
kasa	-9.54745
hu	-9.54767
BE	-9.5482
of	-9.5497
▁Fuku	-9.5498
60	-9.54982
▁difficult	-9.55057
cul	-9.55223
▁Nihon	-9.55279
▁enter	-9.55331
▁direction	-9.55367
▁Te	-9.55405
▁approximately	-9.55492
▁manor	-9.55707
▁Daigo	-9.55744
▁sun	-9.55758
gra	-9.55775
ph	-9.55785
80	-9.55793
▁Choshu	-9.55849
unt	-9.55869
we	-9.55934
▁deities	-9.56054
▁fields	-9.56104
▁exchange	-9.56235
▁square	-9.56235
▁Cha	-9.5625
▁Oto	-9.56538
▁arrow	-9.56592
act	-9.56633
▁deep	-9.56671
house	-9.5682
▁must	-9.56823
▁request	-9.569
▁N	-9.56915
▁theories	-9.56965
nce	-9.56968
ize	-9.57025
▁By	-9.57036
▁treated	-9.57064
▁mikoto	-9.57144
▁shoen	-9.57244
▁sha	-9.5726
▁Shimo	-9.5731
90	-9.57474
main	-9.57546
▁wear	-9.57617
▁love	-9.57674
▁prevent	-9.57902
▁plant	-9.57931
▁particular	-9.57956
▁learned	-9.57959
▁seventh	-9.58075
▁lunar	-9.58141
od	-9.58302
▁rather	-9.58393
▁yen	-9.58514
▁education	-9.58586
▁pray	-9.58648
▁bi	-9.58837
▁chapter	-9.58865
ved	-9.58953
▁Ancient	-9.58968
▁m	-9.59027
▁Ba	-9.59094
▁little	-9.59114
ging	-9.59127
▁things	-9.59209
Re	-9.59281
▁Kage	-9.59408
▁recorded	-9.59562
ology	-9.59576
▁Ashikaga	-9.59595
▁la	-9.59629
▁live	-9.59647
▁start	-9.59707
nami	-9.5971
▁Sangi	-9.59769
▁NAKAMURA	-9.59849
▁inter	-9.60122
▁gained	-9.60165
▁silk	-9.60207
▁code	-9.60239
Yo	-9.60281
om	-9.60366
▁Mikoto	-9.60396
SE	-9.60415
vis	-9.60472
▁products	-9.60475
DO	-9.60506
▁opinion	-9.60532
gumi	-9.60579
lit	-9.60595
▁reached	-9.60709
▁arts	-9.6072
▁actually	-9.60757
▁ritsuryo	-9.60823
▁Ren	-9.60856
▁imp	-9.60915
▁stations	-9.60942
▁Property	-9.60946
▁highly	-9.60997
▁honor	-9.61042
par	-9.61044
61	-9.61065
▁properties	-9.61071
▁wood	-9.61077
83	-9.61154
▁towns	-9.61176
▁information	-9.61194
minister	-9.61234
▁administrative	-9.6138
▁mound	-9.61442
(	-9.61467
▁going	-9.61512
▁standard	-9.61694
▁here	-9.61699
▁Tosa	-9.61708
▁legitimate	-9.61816
▁minutes	-9.61825
35	-9.61845
Nihonshoki	-9.61857
qui	-9.61896
▁("	-9.619
gura	-9.61952
iwa	-9.61977
yaki	-9.61991
▁Yamashiro	-9.62083
V	-9.62093
▁broke	-9.62162
20	-9.62214
16	-9.62214
▁principal	-9.62483
▁Importan	-9.62499
▁actual	-9.62513
▁wide	-9.62522
▁ge	-9.62541
19	-9.62636
Ya	-9.62718
▁2,	-9.62779
▁appear	-9.62803
▁lead	-9.62851
fe	-9.62935
▁Council	-9.62955
tama	-9.62977
▁Fukuchiyama	-9.63071
Ten	-9.63108
▁dishes	-9.63144
▁kai	-9.63174
In	-9.6319
▁technique	-9.63209
▁MORI	-9.6325
kane	-9.63333
▁far	-9.63524
▁tomb	-9.63529
▁trees	-9.63577
▁awarded	-9.63595
▁personal	-9.63655
WA	-9.63694
▁groups	-9.63958
▁ruling	-9.63961
▁legal	-9.63973
▁Chika	-9.63978
▁descendant	-9.63989
▁Showa	-9.64041
01	-9.64046
50	-9.64106
▁running	-9.64216
▁effect	-9.64319
tle	-9.64441
▁Yodo	-9.64508
0,000	-9.64513
38	-9.64538
▁sound	-9.646
▁value	-9.64623
▁presented	-9.64729
▁too	-9.65039
▁financial	-9.65113
▁terms	-9.65131
▁gon	-9.65145
▁concern	-9.65228
▁ran	-9.65233
▁material	-9.65298
low	-9.65348
med	-9.65462
kuro	-9.65554
time	-9.6563
▁parts	-9.65681
ia	-9.65738
▁destroyed	-9.6576
▁Mei	-9.6576
▁ticket	-9.6576
Chronicles	-9.65783
▁medieval	-9.6589
▁im	-9.65909
▁3,	-9.65945
▁Kanpaku	-9.66034
▁size	-9.66088
▁hereditary	-9.66088
▁Den	-9.66132
▁coming	-9.66143
▁pe	-9.66151
ple	-9.66271
Jo	-9.66323
law	-9.6633
▁Da	-9.66446
zei	-9.66515
▁stories	-9.66542
▁function	-9.66549
68	-9.66597
▁dead	-9.66656
▁surrounding	-9.66673
daijin	-9.66713
▁bamboo	-9.66768
▁Higashiyama	-9.66776
▁rest	-9.66778
▁Center	-9.66804
▁Le	-9.66869
▁ranked	-9.66878
▁Shinshu	-9.66886
▁actor	-9.66995
▁Oi	-9.67039
▁ancestor	-9.67067
▁warriors	-9.67071
▁yu	-9.67075
▁bow	-9.67203
▁Li	-9.67205
▁houses	-9.67234
▁noodles	-9.67291
nder	-9.67317
▁representative	-9.67334
▁Todai	-9.67339
▁why	-9.67462
▁Zo	-9.67498
▁manuscript	-9.67594
▁tradition	-9.67692
▁sei	-9.677
istic	-9.67723
▁sutra	-9.67743
lin	-9.67811
Emperor	-9.6797
▁pagoda	-9.67991
gar	-9.67995
▁General	-9.68032
▁Other	-9.68039
▁newly	-9.68067
tomi	-9.68091
▁Kon	-9.68265
▁ranks	-9.68374
▁rebellion	-9.6839
▁Settsu	-9.68391
▁Bank	-9.68464
▁thousand	-9.68524
77	-9.68574
▁mon	-9.68623
▁Tumulus	-9.68657
▁yo	-9.68666
Tsu	-9.68769
▁Echizen	-9.68791
▁always	-9.68791
▁able	-9.68862
▁Its	-9.68882
32	-9.68906
pro	-9.69033
▁Waka	-9.6904
▁individual	-9.69059
▁unique	-9.69059
▁domains	-9.69091
▁interest	-9.69213
▁foundation	-9.69239
Se	-9.69256
tsuki	-9.6926
▁soy	-9.69265
▁ended	-9.69372
cing	-9.69423
wara	-9.69544
78	-9.69584
Cloistered	-9.69597
▁Government	-9.69732
▁types	-9.69827
▁Ex	-9.6983
▁Dan	-9.69863
▁territories	-9.69867
▁formal	-9.70038
▁deal	-9.70052
▁Kintetsu	-9.70151
▁distinguished	-9.70153
17	-9.70194
zukuri	-9.70195
ppo	-9.70266
▁Jugoinoge	-9.70268
▁immediately	-9.70274
▁respectively	-9.70316
oki	-9.70343
pon	-9.70369
▁black	-9.70444
▁T	-9.70447
▁completely	-9.70521
▁Additionally	-9.70545
▁recognized	-9.70545
▁21,	-9.70631
▁monks	-9.70639
OKA	-9.7066
▁Izumo	-9.70752
▁vi	-9.70753
▁Grand	-9.70921
bei	-9.71027
▁Z	-9.71052
▁husband	-9.71091
hai	-9.7126
▁secret	-9.71295
▁available	-9.71365
▁memorial	-9.71365
▁Godaigo	-9.71366
▁model	-9.71367
ification	-9.71372
▁appearance	-9.71524
▁meeting	-9.71591
▁report	-9.71611
▁cloth	-9.71686
▁clans	-9.71738
HARA	-9.71759
▁soon	-9.71772
Z	-9.71776
▁gen	-9.71791
▁25	-9.7182
66	-9.71838
81	-9.71954
▁single	-9.72057
▁Mitsuhide	-9.7208
▁includes	-9.72128
▁peace	-9.72179
let	-9.72223
▁officers	-9.72249
▁sweet	-9.72301
▁escaped	-9.72321
▁Three	-9.72474
em	-9.72497
▁recent	-9.72507
▁entrance	-9.72609
part	-9.72627
cc	-9.72667
▁chi	-9.72827
▁figure	-9.72838
▁worn	-9.72887
▁mu	-9.729
▁twenty	-9.73026
▁bring	-9.73047
ear	-9.73059
▁treasure	-9.73079
▁via	-9.73096
48	-9.73162
▁politics	-9.73166
▁existence	-9.73184
tane	-9.73243
satsu	-9.73274
▁entire	-9.73306
▁ban	-9.73342
▁upper	-9.73409
▁Sha	-9.73432
▁empress	-9.73451
59	-9.73488
▁taste	-9.73508
kyoku	-9.73557
▁Jusanmi	-9.73586
▁card	-9.73654
▁gl	-9.73822
TO	-9.73856
▁Hokkaido	-9.73867
▁Toba	-9.73873
GI	-9.73918
GAWA	-9.73918
▁call	-9.7395
▁Shun	-9.74
pped	-9.74004
▁Yoshino	-9.74083
▁stayed	-9.74102
▁remain	-9.74148
▁Daijo	-9.74163
▁childhood	-9.74163
▁best	-9.74286
▁kill	-9.74392
▁District	-9.74432
▁dispatched	-9.74488
oi	-9.74552
▁know	-9.74554
bara	-9.7459
▁Hachiman	-9.74597
▁succeed	-9.74597
▁swords	-9.74626
▁Tan	-9.74725
15	-9.74765
▁regular	-9.74801
▁Nai	-9.74877
▁game	-9.74968
▁either	-9.75
▁manner	-9.75042
▁across	-9.75142
kon	-9.75218
▁told	-9.7522
▁avoid	-9.75285
▁southern	-9.75285
▁dish	-9.75338
▁Ban	-9.75367
▁Roku	-9.75394
▁true	-9.75429
▁turn	-9.75467
SHIMA	-9.75523
▁supposed	-9.75571
▁Shinsengumi	-9.75573
▁Ke	-9.75635
▁hair	-9.75702
▁senior	-9.75714
▁(19	-9.75755
64	-9.75799
▁Gate	-9.75873
▁Treasure	-9.76001
▁help	-9.76039
99	-9.76051
▁Park	-9.76153
▁cannot	-9.76173
cal	-9.76189
▁reported	-9.76278
▁religion	-9.76289
▁–	-9.76342
SO	-9.76364
ari	-9.76384
▁K	-9.76421
▁lawful	-9.76468
▁diary	-9.76501
▁(18	-9.76727
▁tale	-9.76745
kki	-9.76852
▁meat	-9.76857
▁ceremonies	-9.77013
▁police	-9.77013
▁Michinaga	-9.77059
▁rec	-9.77091
Governor	-9.77093
▁Azuchi	-9.77159
▁management	-9.77172
gaki	-9.77205
▁transfer	-9.77269
date	-9.77318
11	-9.77357
three	-9.77392
aries	-9.77444
▁renamed	-9.77449
▁skill	-9.7745
▁wish	-9.77454
▁island	-9.77457
Chi	-9.77471
▁anti	-9.77544
▁principle	-9.77595
cent	-9.77616
▁ken	-9.77631
▁posthumous	-9.77648
ong	-9.77722
▁novel	-9.77748
85	-9.77815
▁existing	-9.77947
▁Yoshimitsu	-9.77994
▁facilities	-9.78181
ranking	-9.78184
kaido	-9.78271
▁sacred	-9.78275
ZU	-9.78377
▁Ca	-9.78421
▁Party	-9.78515
▁Minami	-9.78523
ping	-9.78581
ori	-9.78587
62	-9.78614
▁Municipal	-9.78623
▁version	-9.78623
▁increase	-9.78686
30	-9.7871
▁scholar	-9.78711
45	-9.78813
provincial	-9.78872
tto	-9.78898
▁protect	-9.78912
gre	-9.7893
▁Bas	-9.78942
▁24	-9.78948
▁defeat	-9.78962
shoku	-9.79
▁equal	-9.79004
▁20,	-9.79045
▁ordinary	-9.79067
43	-9.79082
hen	-9.79116
55	-9.79177
▁NAKA	-9.7919
▁opposed	-9.79225
▁household	-9.79227
ton	-9.79242
ware	-9.79294
▁participated	-9.79299
▁platform	-9.79306
▁engaged	-9.79325
42	-9.79418
▁collect	-9.79463
YO	-9.79473
▁King	-9.79478
40	-9.79538
▁Ming	-9.79549
Mo	-9.79564
▁HA	-9.79595
54	-9.7964
▁attached	-9.79751
75	-9.79777
▁tran	-9.79805
▁Article	-9.79844
56	-9.79911
▁demand	-9.79961
▁eighth	-9.80016
▁shows	-9.80081
▁suicide	-9.80099
49	-9.80102
69	-9.80103
▁Express	-9.80105
▁Shotoku	-9.80115
▁equivalent	-9.80119
▁TAKA	-9.80189
▁ca	-9.80199
▁Bridge	-9.8026
▁Qing	-9.80269
▁Nagasaki	-9.80301
▁Kumano	-9.80324
▁round	-9.80328
▁leaves	-9.8034
▁soba	-9.80406
ries	-9.8046
▁ritual	-9.80528
▁green	-9.80562
▁action	-9.80593
▁Upp	-9.80595
press	-9.80663
Nihon	-9.80693
▁belief	-9.80711
▁All	-9.80719
▁25,	-9.8072
▁1868	-9.8076
spite	-9.8077
▁won	-9.80818
▁NAGA	-9.80871
▁seem	-9.8089
▁Hyo	-9.80904
zuki	-9.80924
12	-9.80961
41	-9.80995
▁cause	-9.81082
▁coin	-9.81124
▁cre	-9.81155
▁lady	-9.81177
▁Haku	-9.81326
dokoro	-9.81328
local	-9.81329
▁clothes	-9.81404
Azuma	-9.81405
▁floor	-9.81468
sato	-9.81472
▁tri	-9.81473
Wa	-9.81479
▁kimono	-9.81504
51	-9.81534
chin	-9.81542
▁prayer	-9.81589
▁J	-9.81601
▁calligraphy	-9.8162
▁yield	-9.8162
▁Raku	-9.81742
▁met	-9.81779
▁seal	-9.81787
▁managed	-9.81861
▁actors	-9.81993
Provision	-9.82077
▁super	-9.82094
▁21	-9.82157
▁warrior	-9.82172
mari	-9.8218
tive	-9.82184
BA	-9.82223
▁buried	-9.82231
NI	-9.82235
▁organized	-9.82421
▁Kobe	-9.82447
▁Gu	-9.82457
No	-9.82539
▁belonging	-9.82599
by	-9.82695
▁Shirakawa	-9.82704
RO	-9.82708
▁turned	-9.82815
kuri	-9.82843
▁31	-9.82845
▁TSU	-9.82868
▁song	-9.82875
▁vice	-9.8288
▁concept	-9.8288
▁busho	-9.82903
▁hundred	-9.8297
▁techniques	-9.82984
moku	-9.83008
▁2006	-9.83012
▁grandfather	-9.83152
▁committed	-9.8317
33	-9.83198
86	-9.83214
6	-9.83227
ite	-9.8326
▁soup	-9.83302
▁your	-9.83311
▁kinds	-9.83317
▁2007	-9.83327
ants	-9.83453
▁Order	-9.83462
arm	-9.83539
sue	-9.83588
▁companies	-9.83772
▁necessary	-9.83772
▁project	-9.8378
▁done	-9.83793
▁picture	-9.8381
21	-9.8388
▁dispute	-9.83928
jutsu	-9.83975
Na	-9.84066
▁scroll	-9.84083
▁behind	-9.84083
▁gi	-9.84127
▁Hyogo	-9.84155
mizu	-9.84182
▁track	-9.84189
▁collected	-9.84192
ery	-9.84193
▁Shiki	-9.84223
▁advanced	-9.84263
▁Courts	-9.84339
▁Junior	-9.84389
▁Harima	-9.84396
▁longer	-9.84543
ative	-9.8463
hachi	-9.84747
▁Hokke	-9.84768
like	-9.84905
▁ship	-9.84951
▁match	-9.84957
▁Mikawa	-9.84982
east	-9.85128
haku	-9.85132
79	-9.85139
71	-9.85167
which	-9.85201
▁offices	-9.85217
▁fan	-9.85222
Tai	-9.85236
Mu	-9.85254
▁5,	-9.85266
▁blood	-9.85496
▁source	-9.85496
akira	-9.8553
89	-9.85534
▁grandson	-9.8567
ked	-9.85796
88	-9.85877
▁Pro	-9.8591
▁princess	-9.85957
▁mean	-9.85968
lf	-9.85992
▁27,	-9.8606
▁think	-9.86141
her	-9.86193
pping	-9.86211
▁free	-9.86211
lated	-9.86215
65	-9.86283
▁Gun	-9.86318
▁wall	-9.86323
long	-9.86337
▁morning	-9.86449
great	-9.86516
▁Ama	-9.86516
▁earth	-9.86613
xi	-9.86658
▁bowl	-9.86696
▁Yoshinobu	-9.86785
▁15,	-9.86849
▁air	-9.86921
▁piece	-9.87058
▁Shinano	-9.87096
82	-9.87216
▁Tenmu	-9.87243
▁Toyotomi	-9.87261
▁50	-9.87324
▁Hiei	-9.87366
▁previous	-9.87388
▁Awa	-9.87403
▁duties	-9.87418
▁ITO	-9.87502
34	-9.87548
▁opening	-9.87554
▁offered	-9.87556
▁iron	-9.87608
▁dedicated	-9.87652
▁crest	-9.87656
▁scale	-9.87667
▁UESUGI	-9.87734
▁23,	-9.87747
▁Taisho	-9.87787
kazu	-9.87819
▁maintain	-9.87819
▁decision	-9.87896
▁Echigo	-9.87897
▁disciples	-9.87995
▁Ra	-9.88014
Ju	-9.88095
▁need	-9.88192
▁TAKEDA	-9.88235
shichi	-9.8824
▁teachings	-9.88243
▁Shijo	-9.88248
▁Collection	-9.88257
out	-9.88263
▁officially	-9.88317
▁showed	-9.88337
▁Yoshimasa	-9.88366
▁screen	-9.88383
▁wo	-9.8846
▁move	-9.88474
▁produce	-9.88476
▁United	-9.88546
▁movie	-9.88547
kushi	-9.88568
known	-9.88577
ike	-9.88598
▁cross	-9.886
▁connection	-9.88656
▁store	-9.88723
scribed	-9.88828
ile	-9.88843
▁Tei	-9.88871
▁question	-9.88873
tur	-9.88963
▁pattern	-9.89194
▁accompanied	-9.892
57	-9.893
▁derived	-9.89427
▁marriage	-9.89529
▁mind	-9.89638
▁Taiwan	-9.8971
▁comes	-9.89714
▁letters	-9.89718
▁Middle	-9.89791
▁28,	-9.89797
▁Rei	-9.8981
▁Yoshiaki	-9.89868
▁illness	-9.89872
▁Lo	-9.89947
▁mountains	-9.90025
▁heaven	-9.90027
▁nature	-9.90049
mission	-9.90088
court	-9.90101
bushi	-9.90104
▁God	-9.90118
▁describes	-9.90175
▁Shinkansen	-9.9019
tr	-9.90195
Ni	-9.90231
▁expression	-9.90343
▁eventually	-9.90355
▁quality	-9.90361
▁sides	-9.90404
tari	-9.90506
▁price	-9.90539
46	-9.90541
53	-9.9058
▁Kagami	-9.90596
▁adopt	-9.90623
▁summer	-9.90688
▁Atsu	-9.90755
toyo	-9.90806
▁holding	-9.90812
▁forest	-9.90887
▁cap	-9.90982
▁Kurodo	-9.91029
▁classified	-9.91046
tern	-9.91205
▁Code	-9.91223
kka	-9.9124
▁grand	-9.91252
▁mark	-9.91403
▁24,	-9.91405
▁Under	-9.91406
lor	-9.91454
tate	-9.91473
47	-9.91485
▁Yamashina	-9.91525
▁sp	-9.91575
▁Yoshinaka	-9.91594
▁dress	-9.91692
Do	-9.91799
▁L	-9.91816
▁emperors	-9.92016
▁adviser	-9.92029
▁barbarians	-9.92031
▁Ichijo	-9.92034
name	-9.92089
▁influenced	-9.92101
cle	-9.92144
▁ruin	-9.92232
▁frequently	-9.92245
▁cover	-9.92272
▁farmers	-9.9234
▁funeral	-9.92367
▁basis	-9.92368
▁crop	-9.92386
▁Di	-9.92405
ible	-9.92421
▁restored	-9.92473
▁accept	-9.92474
Kojiki	-9.92486
▁language	-9.92537
▁den	-9.92577
soku	-9.92581
Minamoto	-9.92642
▁Pure	-9.92648
▁meant	-9.92677
▁association	-9.92706
▁MATSU	-9.92725
▁29,	-9.92762
▁(1	-9.9278
▁assistant	-9.92805
52	-9.92815
▁reading	-9.92817
▁let	-9.92891
▁bad	-9.92988
▁appointment	-9.92992
87	-9.92996
▁economic	-9.93047
kofun	-9.93058
▁Gan	-9.93073
▁door	-9.93164
▁Kaku	-9.93202
▁king	-9.93259
▁arrived	-9.9331
▁Ishi	-9.93322
98	-9.9336
▁civil	-9.93388
▁salt	-9.93439
▁Izu	-9.93494
▁Izumi	-9.93506
▁string	-9.93563
▁Kugyo	-9.93583
72	-9.93661
▁Katsura	-9.93686
▁specific	-9.93755
▁Udaijin	-9.93783
▁space	-9.93791
don	-9.93805
▁Wakashu	-9.93822
▁Around	-9.93823
nojo	-9.93891
▁Nagoya	-9.93904
▁km	-9.93911
▁min	-9.94005
▁favor	-9.94012
▁YAMA	-9.9402
▁grade	-9.94115
▁bar	-9.94173
▁Sakai	-9.94205
▁Ti	-9.94244
▁Tama	-9.94267
kichi	-9.94389
▁drum	-9.9442
ume	-9.94436
▁department	-9.94439
▁22,	-9.94538
▁working	-9.94598
▁Seki	-9.94606
if	-9.94652
▁Kuro	-9.94726
▁Sekigahara	-9.94767
▁faction	-9.9492
▁non	-9.94929
▁uncle	-9.94944
▁bridge	-9.94952
▁festivals	-9.95076
▁friend	-9.95101
▁Za	-9.95107
▁subdue	-9.95119
▁surface	-9.95123
▁paid	-9.95135
▁Mito	-9.95159
▁enthronement	-9.95288
▁em	-9.95296
▁tai	-9.95466
▁pay	-9.95483
tsubo	-9.95494
06	-9.9551
GO	-9.95583
▁Hitachi	-9.95649
▁future	-9.95682
▁ingredients	-9.95831
▁reasons	-9.95899
hama	-9.95926
shaku	-9.96007
▁troop	-9.96135
▁beautiful	-9.96164
▁program	-9.96173
all	-9.96215
▁Hana	-9.96257
▁Tane	-9.9628
▁starting	-9.96282
▁Sea	-9.96302
▁maternal	-9.9634
▁followers	-9.96366
▁allow	-9.96373
▁join	-9.96382
").	-9.96398
63	-9.96432
kimi	-9.96454
▁Summary	-9.96516
▁division	-9.96517
▁4,	-9.96611
▁MA	-9.96612
▁submitted	-9.96878
▁bean	-9.97016
07	-9.97053
▁Sadaijin	-9.97088
▁step	-9.97322
▁sushi	-9.97347
▁Constitution	-9.97405
▁Kaga	-9.97415
▁Hei	-9.9742
▁captured	-9.97484
▁bound	-9.97528
nother	-9.97538
▁miya	-9.97558
▁Book	-9.97581
Shu	-9.97617
▁Aizu	-9.97632
ttle	-9.97656
▁Otomo	-9.97684
▁Shikibu	-9.97692
▁OTOMO	-9.9776
▁intention	-9.97762
▁contains	-9.97787
KO	-9.9782
▁30,	-9.97843
▁Shoshi	-9.98061
▁Iyo	-9.98069
▁stated	-9.98132
▁Kofuku	-9.98159
02	-9.98195
KE	-9.98212
▁fighting	-9.98309
▁list	-9.98331
▁learning	-9.98408
▁nine	-9.98409
▁Fudo	-9.98457
▁brewing	-9.98477
▁market	-9.98496
08	-9.98517
▁drawn	-9.9855
▁belong	-9.98605
▁teacher	-9.98641
vice	-9.9866
▁Sue	-9.98732
ced	-9.98773
Sen	-9.98797
▁account	-9.98839
▁kanji	-9.98846
pic	-9.98951
▁mass	-9.9902
▁folk	-9.99022
▁Ai	-9.99059
▁care	-9.99075
▁institution	-9.99083
▁7,	-9.99106
ft	-9.99115
zaki	-9.99165
▁punishment	-9.992
91	-9.99201
▁excellent	-9.99208
▁planned	-9.99228
temple	-9.99237
▁Nu	-9.99276
uma	-9.99292
▁particularly	-9.99298
▁La	-9.99347
▁influential	-9.99381
▁Bakufu	-9.99382
lan	-9.99395
▁22	-9.994
▁camp	-9.99412
▁tower	-9.99435
▁Day	-9.99459
▁examples	-9.99495
masu	-9.99554
▁mausoleum	-9.99563
ably	-9.99589
▁eaten	-9.99621
MO	-9.99628
▁perform	-9.9973
▁painter	-9.99751
▁cooking	-9.99752
▁Enryaku	-9.99764
ou	-9.99796
03	-9.99893
24	-9.99906
▁Hachi	-9.99957
nushi	-10.001
▁studies	-10.0011
▁restoration	-10.0011
▁items	-10.0027
▁Ume	-10.0028
▁autumn	-10.0029
▁variety	-10.0029
▁costume	-10.0048
▁That	-10.0049
▁Due	-10.0049
▁guardian	-10.005
▁something	-10.0067
▁Shingen	-10.0077
▁send	-10.0082
▁connected	-10.0085
31	-10.0085
bai	-10.009
▁Sakyo	-10.0099
▁People	-10.0103
▁height	-10.0113
▁shown	-10.0113
▁table	-10.0114
Yoshi	-10.0126
▁tumulus	-10.0128
rate	-10.0137
▁applied	-10.014
▁Tenno	-10.0145
▁prepared	-10.015
▁Europe	-10.0151
kage	-10.0151
▁invited	-10.0159
▁ABE	-10.0161
▁job	-10.0166
▁achievements	-10.0167
izing	-10.0167
▁increasing	-10.0177
▁Agency	-10.0177
▁girl	-10.0177
▁8,	-10.0186
jun	-10.0191
▁whom	-10.0194
▁surname	-10.0196
▁lands	-10.0209
▁26,	-10.0212
94	-10.0214
▁theater	-10.0218
▁stand	-10.022
▁Tr	-10.0226
Yu	-10.0232
▁thirty	-10.0233
taisha	-10.0237
▁Nichi	-10.0237
▁23	-10.0238
▁box	-10.0239
▁Corporation	-10.0252
▁2005	-10.0254
NE	-10.026
▁condition	-10.0263
▁merchants	-10.0264
who	-10.0265
▁Koto	-10.0277
▁Oe	-10.0287
▁egg	-10.0289
▁sw	-10.0295
▁edict	-10.0308
▁president	-10.031
▁controlled	-10.0311
quite	-10.0325
▁doctor	-10.033
▁closed	-10.0339
▁Kagoshima	-10.0346
▁stick	-10.0346
▁correspond	-10.0348
▁seat	-10.0359
▁rain	-10.0363
kusa	-10.0373
▁ruled	-10.0382
▁pick	-10.0385
form	-10.0388
direct	-10.039
]).	-10.039
44	-10.0394
mor	-10.0405
▁Oka	-10.0407
▁villages	-10.0413
▁audience	-10.0422
▁Most	-10.0428
▁(15	-10.0439
▁Ima	-10.044
▁million	-10.0443
▁6,	-10.0446
▁yet	-10.0461
▁disease	-10.0462
ob	-10.0465
▁hands	-10.0466
JR	-10.047
▁restaurants	-10.0475
▁receive	-10.0475
▁Institute	-10.0479
▁Peninsula	-10.0479
▁Research	-10.0479
▁Thus	-10.048
iki	-10.0482
▁28	-10.0483
▁listed	-10.0484
▁additional	-10.0491
▁represent	-10.0491
▁kin	-10.0492
shed	-10.0492
▁Mura	-10.0498
▁declined	-10.0499
▁bell	-10.0507
▁9,	-10.0517
▁industry	-10.0518
▁installed	-10.0532
▁provide	-10.0533
▁reach	-10.0536
▁Doshisha	-10.0537
sumi	-10.0538
▁background	-10.0538
sign	-10.0548
▁19,	-10.0549
▁currency	-10.0556
▁responsible	-10.0556
▁problem	-10.0563
TANI	-10.0568
▁thin	-10.0574
▁Ura	-10.0574
▁covered	-10.0583
▁conduct	-10.0594
▁practical	-10.0595
abi	-10.06
04	-10.0602
▁flower	-10.0605
scale	-10.0611
▁plot	-10.0615
23	-10.0622
▁portrait	-10.0634
▁ninth	-10.0635
▁matter	-10.0639
▁servant	-10.0641
lies	-10.0641
ties	-10.0642
▁shops	-10.0644
▁Science	-10.0653
▁sentence	-10.0659
▁Chief	-10.0661
▁deputy	-10.0672
▁academic	-10.0673
▁circumstances	-10.0675
▁mis	-10.0678
▁Hiroshima	-10.0681
official	-10.0682
waka	-10.0684
kado	-10.0687
▁English	-10.0693
▁miko	-10.0711
▁exp	-10.0712
▁distance	-10.0712
▁severe	-10.0716
▁star	-10.072
25	-10.0724
▁Kasuga	-10.0731
▁transportation	-10.0735
KURA	-10.0736
Ba	-10.074
▁Vi	-10.0743
▁Kii	-10.0748
▁connect	-10.0757
rk	-10.0758
▁artist	-10.0762
print	-10.0767
▁accord	-10.0767
lk	-10.0769
▁Meanwhile	-10.0771
▁Hai	-10.0778
▁par	-10.0779
▁wearing	-10.0784
28	-10.0789
boku	-10.0794
▁Rikyu	-10.0796
▁Uta	-10.0797
etsu	-10.0808
▁lecture	-10.0831
▁territorial	-10.0831
▁Biwa	-10.0842
▁magistrate	-10.0847
▁taught	-10.085
four	-10.0862
▁ill	-10.087
▁Empire	-10.087
▁becomes	-10.0872
▁mostly	-10.0879
▁exists	-10.0883
▁Heike	-10.0887
▁break	-10.0887
uri	-10.089
▁sur	-10.0892
▁separated	-10.0892
▁classical	-10.0894
▁measures	-10.09
▁rules	-10.0901
▁tell	-10.0907
▁KONOE	-10.091
▁associated	-10.091
▁Daishi	-10.0911
▁temporary	-10.0913
▁flowers	-10.0914
war	-10.0919
▁eating	-10.092
mine	-10.0927
ao	-10.0928
▁basic	-10.0929
ography	-10.0929
▁determined	-10.093
▁permission	-10.0932
monin	-10.0944
▁runs	-10.0944
▁believe	-10.0946
▁Cabinet	-10.095
▁target	-10.095
▁2008	-10.0953
▁mai	-10.0953
ious	-10.0956
jaku	-10.0964
▁painted	-10.0971
▁Fukuoka	-10.0973
▁currently	-10.0974
▁Pre	-10.0974
96	-10.0983
▁suffered	-10.0995
hand	-10.1004
period	-10.1004
▁advance	-10.1008
▁Yoshitaka	-10.1009
▁simply	-10.1011
▁giving	-10.1011
ak	-10.1011
▁remaining	-10.1013
▁extended	-10.1019
▁Shaka	-10.1021
▁wind	-10.1025
▁knowledge	-10.1033
oshi	-10.1041
▁die	-10.1042
▁Chiku	-10.1049
▁enough	-10.1051
▁KUJO	-10.1052
GUCHI	-10.1053
▁leave	-10.1061
▁Koya	-10.1065
97	-10.107
mate	-10.1071
▁survey	-10.1072
▁staff	-10.1072
▁someone	-10.1074
high	-10.1086
from	-10.1086
Sei	-10.1089
now	-10.1092
oku	-10.1094
▁articles	-10.1102
▁consider	-10.1103
▁moon	-10.1107
▁cabinet	-10.1113
▁temporarily	-10.1113
▁battles	-10.1117
▁Yoshitomo	-10.1121
▁measure	-10.1123
▁range	-10.1129
saburo	-10.1136
▁passengers	-10.114
vest	-10.1144
▁greatly	-10.1151
▁guest	-10.1154
▁attempt	-10.1154
▁TACHIBANA	-10.1174
▁offering	-10.1175
▁ranking	-10.1176
▁follow	-10.1182
▁actively	-10.1187
▁Uchi	-10.1192
▁facility	-10.1195
▁Yakushi	-10.1199
▁Maki	-10.1202
▁Karasuma	-10.1215
▁sugar	-10.1217
ryaku	-10.1224
ard	-10.1227
ek	-10.1232
▁heard	-10.1236
▁simple	-10.1236
▁Mountain	-10.1236
▁changes	-10.1238
▁shop	-10.1239
juku	-10.1245
▁H	-10.1255
▁Hosokawa	-10.1257
▁ke	-10.1257
▁find	-10.1257
▁annual	-10.1257
▁Mochi	-10.1258
getsu	-10.1259
▁col	-10.1262
oto	-10.1264
▁Tatsu	-10.1268
Ji	-10.127
▁Kukai	-10.127
Taka	-10.1274
▁Kara	-10.1275
▁spot	-10.1278
▁Mizu	-10.128
MOTO	-10.1285
▁indicates	-10.1293
%	-10.1303
▁typical	-10.1319
▁failed	-10.1319
ber	-10.1319
▁songs	-10.1322
▁bon	-10.1329
▁compared	-10.134
▁attention	-10.134
▁spa	-10.1345
27	-10.1358
▁monument	-10.1361
▁burial	-10.1361
tsuke	-10.1367
▁discovered	-10.1382
▁revision	-10.1382
▁Volume	-10.1382
▁Kizu	-10.1383
tsuji	-10.1383
▁Gion	-10.1383
▁removed	-10.1385
kken	-10.1388
pre	-10.139
▁chu	-10.1395
chan	-10.1395
▁26	-10.1399
▁TAKE	-10.1402
▁nobility	-10.1403
dic	-10.1407
▁Hankyu	-10.1409
Osaka	-10.1412
Kin	-10.1413
▁exiled	-10.1416
vat	-10.1418
▁Gojo	-10.1419
▁leaving	-10.1424
▁refused	-10.1424
▁faith	-10.1424
▁depict	-10.1427
nokami	-10.1432
rated	-10.1432
▁scholars	-10.1432
▁shall	-10.1433
▁saw	-10.1436
▁films	-10.1438
▁Dewa	-10.1443
hana	-10.1443
▁Ben	-10.1443
▁peasants	-10.1445
▁thick	-10.1445
atsu	-10.1445
▁Si	-10.1457
▁goods	-10.1464
▁Shira	-10.1468
▁plays	-10.1479
▁happened	-10.1481
▁inner	-10.1481
AN	-10.1485
▁advantage	-10.1487
▁dried	-10.1487
▁South	-10.149
▁gathered	-10.1503
▁winter	-10.1511
▁final	-10.1511
juro	-10.1513
boshi	-10.1518
▁Kura	-10.1518
▁maintained	-10.1519
▁conditions	-10.1538
UE	-10.1544
▁SOGA	-10.1551
▁crown	-10.1551
▁urban	-10.1551
▁rose	-10.1552
▁Kanmu	-10.1556
▁eat	-10.1557
▁lives	-10.1564
▁Oshi	-10.1566
ories	-10.1567
▁strongly	-10.1569
▁treatment	-10.1572
▁Suruga	-10.1572
▁60	-10.1573
ium	-10.1586
▁Tokaido	-10.1587
▁Ja	-10.1593
大	-10.1594
▁Shiba	-10.1603
▁rock	-10.1609
05	-10.1617
▁fixed	-10.1628
▁contributed	-10.1628
buki	-10.1634
sawa	-10.1634
▁talent	-10.1639
▁boy	-10.1639
taku	-10.1639
▁Clan	-10.164
▁Today	-10.164
EN	-10.1647
New	-10.1658
▁student	-10.166
▁attain	-10.1668
Kyo	-10.1671
▁spirits	-10.1675
▁double	-10.168
▁martial	-10.168
▁Kumamoto	-10.1682
▁rituals	-10.1685
▁Uesugi	-10.1688
▁Ukyo	-10.1688
▁cake	-10.169
▁bank	-10.1699
▁alcohol	-10.1702
shrine	-10.1703
▁suppress	-10.1705
▁Jizo	-10.1709
▁Seiwa	-10.1716
▁win	-10.1718
▁relatively	-10.1719
▁titles	-10.1721
▁continue	-10.1723
ual	-10.1727
▁efforts	-10.1731
UCHI	-10.1732
▁fled	-10.1733
▁Miyazu	-10.1733
▁nu	-10.174
▁Kongo	-10.174
▁evil	-10.1742
▁develop	-10.1744
▁Hama	-10.1745
▁international	-10.1745
▁Naidaijin	-10.1746
▁talk	-10.1747
goto	-10.1754
▁mixed	-10.1767
▁incorporated	-10.1767
▁subsequently	-10.1778
▁za	-10.1787
▁cherry	-10.1789
▁gokenin	-10.1789
▁headquarters	-10.1789
▁Train	-10.1789
HIRA	-10.1793
kiri	-10.1793
▁prefecture	-10.1793
▁successive	-10.1794
▁requested	-10.1797
▁Daimyo	-10.1806
▁descriptions	-10.1806
▁Dazai	-10.1807
▁Kingdom	-10.1811
▁arranged	-10.1811
▁circle	-10.1811
▁Before	-10.1811
▁build	-10.1811
▁patterns	-10.1811
▁rapid	-10.1814
west	-10.1816
▁Iga	-10.1823
▁narrow	-10.1832
zaburo	-10.1832
▁stopped	-10.1834
▁soul	-10.1835
▁relocated	-10.1836
▁Okayama	-10.1838
rice	-10.1839
▁Daijokan	-10.1841
▁weight	-10.1842
▁regulations	-10.1842
hood	-10.1843
▁fun	-10.1844
▁plate	-10.1845
▁park	-10.1847
nagon	-10.1848
26	-10.1848
▁pronounced	-10.185
▁boat	-10.1852
Buddhist	-10.1856
▁cities	-10.1861
▁makes	-10.1867
▁negotiation	-10.1876
▁concurrently	-10.1878
▁Uma	-10.188
Cho	-10.1894
tangible	-10.1899
▁self	-10.1901
pass	-10.1913
▁Oku	-10.1914
▁Port	-10.1921
▁1869	-10.1927
▁performing	-10.1929
eight	-10.1931
▁Yoko	-10.1931
train	-10.1942
▁border	-10.1943
▁permitted	-10.1943
▁kabuki	-10.1945
▁symbol	-10.1946
▁1871	-10.1949
tting	-10.1961
Kai	-10.1964
▁prohibited	-10.1965
▁Jushiinoge	-10.1965
▁prior	-10.1965
mber	-10.1966
▁wanted	-10.1968
▁Kinki	-10.1975
▁HO	-10.1975
▁Nihonshoki	-10.198
▁Assistant	-10.1981
▁Kinai	-10.1984
kuma	-10.1987
▁stipend	-10.1987
Maizuru	-10.1991
▁arms	-10.1991
bound	-10.1991
▁claim	-10.1991
▁Masamune	-10.1994
76	-10.1995
atory	-10.2005
▁expressed	-10.2012
22	-10.2015
work	-10.2016
shitsu	-10.2021
▁Five	-10.2027
▁Miko	-10.2029
▁decline	-10.2031
▁concubine	-10.2032
▁commit	-10.2034
matsuri	-10.2034
▁lack	-10.2036
▁Sun	-10.2041
▁Wakasa	-10.2042
▁contents	-10.2042
▁Nyo	-10.2043
▁Min	-10.2043
ctor	-10.205
Co	-10.2053
▁Faculty	-10.2054
▁kyo	-10.2067
▁retained	-10.2071
wake	-10.2077
▁ICHIKAWA	-10.2077
▁uprising	-10.2077
▁flavor	-10.2085
kake	-10.2085
▁complete	-10.2087
▁Saigo	-10.2094
▁relative	-10.2094
▁peerage	-10.2099
▁ships	-10.2103
▁attend	-10.2116
▁professional	-10.2118
ute	-10.212
▁Records	-10.2121
▁easily	-10.2122
▁weapon	-10.2122
▁settled	-10.2122
dama	-10.2123
▁Daigaku	-10.2125
▁castles	-10.2127
tea	-10.2129
zushi	-10.213
▁carry	-10.2131
▁kara	-10.2141
▁executed	-10.2145
▁enshrine	-10.2145
Chinese	-10.215
▁chant	-10.2153
▁roll	-10.2157
▁kokushi	-10.2161
▁animal	-10.2167
▁ascetic	-10.2167
kkan	-10.2172
Han	-10.2172
▁SHI	-10.2173
▁Date	-10.2185
tetsu	-10.2189
▁27	-10.219
▁pursu	-10.2191
▁Kokushi	-10.2197
tta	-10.2211
▁Kiri	-10.2214
▁rare	-10.2218
IN	-10.2223
uring	-10.2228
hyo	-10.2229
▁Hime	-10.223
▁literary	-10.2237
▁Saka	-10.2241
▁Ameno	-10.2242
▁disappeared	-10.2248
six	-10.225
▁Kimi	-10.2254
▁lacquer	-10.2257
▁cm	-10.2257
▁cooked	-10.2257
▁Poetry	-10.2259
▁Gaku	-10.2259
▁provisional	-10.2264
Grand	-10.2265
▁Uda	-10.2267
▁`	-10.2269
▁Christian	-10.2269
▁doctrine	-10.2281
▁evidence	-10.2281
▁university	-10.2281
▁offer	-10.2286
▁Aka	-10.2288
▁obtained	-10.2292
▁achieved	-10.2299
▁Dowager	-10.2304
▁anecdote	-10.2304
▁defined	-10.2305
▁architecture	-10.2305
▁criticized	-10.2305
ult	-10.2306
▁cost	-10.231
tail	-10.2319
sode	-10.2322
bugyo	-10.2322
▁Konoe	-10.2323
▁MIYOSHI	-10.2327
▁Modern	-10.2327
▁consort	-10.2327
▁flour	-10.2327
▁Masakado	-10.2331
▁paste	-10.2333
▁medicine	-10.2351
▁Subway	-10.2351
▁entry	-10.2351
▁Ru	-10.2351
▁effective	-10.2355
▁extremely	-10.2356
▁playing	-10.237
▁cast	-10.2371
29	-10.2371
▁community	-10.2374
▁domestic	-10.2374
▁significant	-10.2374
▁Sakone	-10.2374
▁Arts	-10.2378
▁enjoy	-10.238
▁suddenly	-10.2381
▁Lake	-10.2381
▁poor	-10.2393
▁stock	-10.2397
au	-10.2399
nishi	-10.2403
nation	-10.2405
Nara	-10.2421
class	-10.2428
Chu	-10.2432
▁reward	-10.2433
fried	-10.2438
▁Asia	-10.2438
▁SAIONJI	-10.2444
▁judge	-10.2444
▁portion	-10.2444
BO	-10.2449
▁protection	-10.2451
▁bl	-10.2452
provisional	-10.2452
YU	-10.2467
▁recover	-10.2467
▁drink	-10.247
"),	-10.2471
▁Rin	-10.2474
traditional	-10.2476
zawa	-10.2479
▁defense	-10.2484
Ro	-10.2484
▁Hashi	-10.2485
▁Okimi	-10.2485
▁instrument	-10.2487
▁damage	-10.2491
▁buses	-10.2497
▁rights	-10.2498
▁teaching	-10.2506
▁Ono	-10.2509
▁matters	-10.2514
▁promotion	-10.2514
▁taxes	-10.2518
former	-10.2524
pur	-10.2526
▁regional	-10.253
use	-10.2535
▁approved	-10.2537
▁phrase	-10.2537
▁preach	-10.2537
▁adult	-10.2538
▁invasion	-10.2561
▁copper	-10.2562
wn	-10.2565
▁laws	-10.257
oc	-10.2579
▁merged	-10.2585
▁tan	-10.2586
▁owner	-10.2586
▁attract	-10.2599
▁Samurai	-10.2608
oya	-10.2609
▁sl	-10.2613
▁rever	-10.2613
▁daibu	-10.2615
▁Okura	-10.2623
▁cold	-10.2625
▁Po	-10.2629
▁introduction	-10.2632
ZAWA	-10.2632
Manyoshu	-10.2634
type	-10.264
▁Nagaoka	-10.2641
▁performer	-10.2643
▁Shinran	-10.2645
▁designed	-10.2648
▁Sumi	-10.265
▁labor	-10.2656
▁pot	-10.2656
top	-10.2666
▁chujo	-10.2672
▁Tohoku	-10.268
▁governors	-10.2681
▁Nagano	-10.2681
pan	-10.2681
▁grandchild	-10.2688
▁(11	-10.2688
▁40	-10.2688
zaka	-10.2689
▁don	-10.2691
Yama	-10.2692
▁descended	-10.2693
▁Foreign	-10.2704
▁treaty	-10.2704
▁conquer	-10.2704
▁proposed	-10.2705
ease	-10.2712
▁raw	-10.272
▁Tadayoshi	-10.2724
▁SHIBA	-10.2726
▁identified	-10.2728
▁Shonii	-10.2728
▁Originally	-10.2729
▁internal	-10.2729
shogun	-10.273
▁operations	-10.273
▁Ishikawa	-10.273
▁announced	-10.2732
▁Zu	-10.2733
some	-10.2737
Bu	-10.2743
▁sumo	-10.275
▁heavy	-10.2752
▁characteristics	-10.2752
▁Tsuru	-10.2753
▁Miyoshi	-10.2753
▁stay	-10.2764
▁Confucianism	-10.2765
▁months	-10.2771
▁ball	-10.2773
▁nephew	-10.2776
▁petition	-10.2776
▁replaced	-10.2778
▁strengthen	-10.2781
▁metal	-10.2782
▁Diet	-10.2782
▁flow	-10.2787
▁mat	-10.279
▁differ	-10.2796
▁Hino	-10.2799
▁messenger	-10.28
▁sleeve	-10.28
▁edition	-10.2801
▁pointed	-10.2808
▁surrendered	-10.2811
▁Oshu	-10.2811
▁revised	-10.2824
▁normal	-10.2824
written	-10.2837
bito	-10.2847
▁bun	-10.2848
▁earlier	-10.2848
▁blossom	-10.2848
▁split	-10.2849
▁Hu	-10.2854
aff	-10.2859
▁walls	-10.2859
▁We	-10.2865
▁hit	-10.2868
▁Class	-10.2873
▁anniversary	-10.2873
SAWA	-10.2874
▁feeling	-10.2879
▁writer	-10.2879
▁access	-10.288
▁gain	-10.2885
▁koto	-10.2894
▁shooting	-10.2895
▁medical	-10.2897
▁TV	-10.2898
▁sand	-10.29
ify	-10.2901
▁Kichi	-10.2906
▁practiced	-10.2908
hata	-10.2911
▁Ran	-10.2917
▁beauty	-10.2921
▁copy	-10.2922
▁coast	-10.2922
▁North	-10.2922
▁FUJI	-10.2922
hold	-10.2926
▁serious	-10.2927
round	-10.2929
▁treasures	-10.293
nabe	-10.2931
▁Properties	-10.2946
▁System	-10.2946
▁response	-10.2946
▁Series	-10.2949
▁Mitsunari	-10.2953
▁recommended	-10.2955
fect	-10.2961
▁Mine	-10.2962
▁poets	-10.2964
▁Kiku	-10.2967
▁decree	-10.2971
▁fe	-10.2974
▁duty	-10.2975
▁clothing	-10.2975
▁200	-10.2979
lord	-10.2981
▁Hiko	-10.2982
▁pen	-10.2988
▁Koga	-10.2989
▁Sung	-10.2989
▁Kasa	-10.2992
▁Soga	-10.2993
▁rise	-10.2994
Y	-10.2995
▁Two	-10.2995
▁focus	-10.2995
▁Gotoba	-10.2995
▁contained	-10.2999
▁Kozuke	-10.3005
lock	-10.3009
ritsu	-10.301
▁SHIMAZU	-10.302
▁bugyo	-10.3022
▁merchant	-10.3028
▁fare	-10.3033
▁Ito	-10.3034
kari	-10.3037
▁Chiba	-10.3044
▁slightly	-10.3045
▁hatamoto	-10.3045
▁biological	-10.3045
▁bath	-10.3062
▁Ara	-10.307
teru	-10.3083
▁Kanze	-10.3084
▁boiled	-10.3094
each	-10.3095
▁reference	-10.3098
▁Onmyo	-10.3102
▁Tomi	-10.3117
▁mirror	-10.3119
▁repair	-10.3119
meter	-10.3119
▁Navy	-10.3123
▁Ako	-10.3124
▁consisted	-10.3124
An	-10.3126
▁opinions	-10.3128
▁Seii	-10.3137
▁pictures	-10.3138
▁procedure	-10.3144
▁constable	-10.3144
=>	-10.3144
▁root	-10.3147
▁escape	-10.3147
▁drawing	-10.3148
▁kata	-10.3149
▁provision	-10.3155
▁fine	-10.3163
▁contrast	-10.3169
▁taishogun	-10.317
▁acted	-10.3172
▁Shima	-10.3173
▁Jingu	-10.3176
▁Wakayama	-10.3179
▁codes	-10.318
▁villa	-10.318
ped	-10.3181
▁Son	-10.3185
Momoyama	-10.3187
▁Kojiki	-10.319
▁Library	-10.3194
▁overthrow	-10.3194
▁grew	-10.3195
▁Shimotsuke	-10.3195
▁resulted	-10.3195
▁dan	-10.3201
dani	-10.3207
▁entering	-10.3213
▁Major	-10.3217
▁attempted	-10.3219
▁broad	-10.322
▁possessed	-10.3235
▁episode	-10.3245
▁chamber	-10.3246
▁translation	-10.3249
▁create	-10.325
▁Kira	-10.3252
▁register	-10.3255
▁content	-10.3259
▁Jinshin	-10.326
▁stores	-10.3273
▁Ouchi	-10.3275
▁attendant	-10.3279
▁relatives	-10.3283
JO	-10.3284
▁Kurama	-10.3288
▁Tori	-10.3289
▁prefectures	-10.329
▁ONO	-10.3292
▁Wooden	-10.3296
▁Atago	-10.3296
▁grounds	-10.3302
▁historic	-10.3315
▁India	-10.3318
▁stones	-10.3319
▁approach	-10.3321
▁Matters	-10.3321
▁YAMANA	-10.3323
It	-10.3325
▁released	-10.3328
▁Teru	-10.3336
▁burned	-10.3341
motsu	-10.3343
▁alliance	-10.3347
▁health	-10.3348
▁dry	-10.3349
▁us	-10.3352
▁heart	-10.3353
kama	-10.3359
▁professor	-10.3363
Te	-10.3364
▁inscription	-10.3364
▁arrangement	-10.3372
▁divine	-10.3372
▁powder	-10.3372
TE	-10.3375
▁Michizane	-10.3375
j	-10.3378
jiki	-10.3379
▁gin	-10.3379
▁manager	-10.3392
Collection	-10.3393
▁Hito	-10.3395
▁hakase	-10.3398
▁block	-10.3398
▁sell	-10.3398
▁Sanuki	-10.34
▁Rokuhara	-10.3401
▁largest	-10.3403
▁districts	-10.341
new	-10.3411
▁reinforc	-10.3423
▁check	-10.3424
▁Silla	-10.3425
▁nor	-10.3427
kuchi	-10.3442
▁Rai	-10.3447
▁joint	-10.3448
▁enlightenment	-10.3449
▁gift	-10.345
▁suggest	-10.3453
▁stands	-10.3459
zuke	-10.3461
▁prefectural	-10.3462
▁meal	-10.3465
▁parties	-10.3466
▁HI	-10.3468
▁correct	-10.3475
▁Spring	-10.3476
▁residents	-10.3477
▁Nakamaro	-10.3481
▁Onin	-10.3482
▁2004	-10.3482
▁Sagami	-10.3487
▁fief	-10.3501
▁rites	-10.3501
▁Sendai	-10.3506
▁pair	-10.3508
▁Akita	-10.3508
▁(16	-10.3522
▁YOSHI	-10.3525
▁science	-10.3527
▁YOSHIDA	-10.3529
five	-10.3534
▁nothing	-10.3534
Bo	-10.3553
▁Esoteric	-10.3553
▁population	-10.3553
▁superior	-10.3553
▁diplomatic	-10.3554
▁Oama	-10.3554
▁rebuilt	-10.3555
▁edge	-10.356
▁Yoshimune	-10.3565
tatsu	-10.3567
▁bear	-10.3568
▁rate	-10.3568
modern	-10.3575
▁aristocrat	-10.3579
▁Though	-10.3579
▁excavated	-10.3579
kagami	-10.3579
▁goes	-10.3583
Nan	-10.3597
▁attended	-10.36
Chronicle	-10.3601
including	-10.3602
▁Mirror	-10.3605
▁Those	-10.3605
▁Theater	-10.3607
▁share	-10.361
▁weak	-10.3612
▁Maru	-10.3612
▁Tsuna	-10.3614
stone	-10.3615
▁product	-10.3617
▁translated	-10.362
▁registered	-10.3621
▁reduced	-10.3625
▁mention	-10.3625
▁29	-10.3628
▁depicted	-10.3629
▁INOUE	-10.3632
▁trouble	-10.3632
kun	-10.3644
pper	-10.3645
▁intended	-10.3658
▁Kameyama	-10.3658
BU	-10.3658
▁spear	-10.3659
tsumi	-10.3662
▁Bizen	-10.3663
▁You	-10.3667
▁betto	-10.3672
▁X	-10.3677
▁farm	-10.3682
▁Dutch	-10.3684
He	-10.3686
▁Thereafter	-10.3686
▁Ishiyama	-10.3692
▁Takakura	-10.3697
kubo	-10.3703
▁commercial	-10.3711
▁300	-10.3713
SAKA	-10.3719
wise	-10.372
▁Nagamasa	-10.3724
range	-10.3724
▁Inari	-10.3725
▁meet	-10.3726
non	-10.3728
ability	-10.3736
▁Treaty	-10.3737
▁Hokuriku	-10.3737
▁cousin	-10.3737
▁degree	-10.3737
▁haiku	-10.3738
▁throw	-10.3738
Jin	-10.3743
▁holiday	-10.3764
▁settlement	-10.3764
rui	-10.3768
▁Sakura	-10.3771
De	-10.3783
▁bureaucrat	-10.379
▁royal	-10.3791
▁Yoshiie	-10.3792
▁characteristic	-10.3793
▁Hidetada	-10.3795
▁thereafter	-10.3796
▁foreigners	-10.3799
▁Tera	-10.3811
room	-10.3816
▁traffic	-10.3817
▁showing	-10.3818
▁Murasaki	-10.3819
▁instruments	-10.3821
▁exhibition	-10.3826
kkai	-10.383
▁Haya	-10.3831
▁relation	-10.3833
▁host	-10.3834
▁draft	-10.3844
▁surrounded	-10.3844
▁Junii	-10.3844
giri	-10.3845
shita	-10.3847
▁tracks	-10.3865
▁reflect	-10.3871
▁ruler	-10.388
▁directed	-10.3884
▁employed	-10.3892
▁successively	-10.3894
▁learn	-10.3895
▁machine	-10.3898
▁desire	-10.3899
▁Moku	-10.3907
uff	-10.3917
▁performances	-10.3925
▁ICHIJO	-10.3925
▁fabric	-10.3925
▁answer	-10.3925
▁Lu	-10.3926
Ri	-10.3945
▁Omiya	-10.3948
jitsu	-10.3952
▁Central	-10.3952
▁watch	-10.3952
▁Juichii	-10.3952
▁NISHI	-10.3952
▁revolt	-10.3952
pat	-10.3954
▁path	-10.3967
▁likely	-10.3967
▁display	-10.3968
▁Gifu	-10.3971
▁write	-10.3972
▁policies	-10.3979
tsura	-10.3981
▁bird	-10.3982
▁Kamigata	-10.3984
▁Bai	-10.3986
▁Such	-10.3987
▁points	-10.399
▁trip	-10.3993
▁Record	-10.3996
cut	-10.4
tte	-10.4003
▁dismissed	-10.4006
▁geisha	-10.4007
▁rakugo	-10.4007
uke	-10.4014
ung	-10.4016
▁platforms	-10.4017
▁Ukone	-10.4019
bori	-10.402
▁Kamigyo	-10.402
getting	-10.402
▁sy	-10.4033
▁relations	-10.4034
graph	-10.4036
▁earn	-10.4037
goe	-10.4043
▁Pass	-10.4049
ient	-10.4055
▁probably	-10.4061
▁receiving	-10.4061
nyu	-10.4063
▁problems	-10.4063
▁rebel	-10.4064
▁Chugu	-10.4064
▁Yamana	-10.4065
▁Kana	-10.407
muro	-10.4073
▁deeply	-10.4077
▁Senior	-10.4084
▁Sato	-10.4087
▁Confucian	-10.4087
lay	-10.4088
according	-10.409
▁restaurant	-10.4095
▁verse	-10.4101
late	-10.4114
▁daily	-10.4115
▁Arashiyama	-10.4116
▁Shizuoka	-10.4116
▁Eastern	-10.4116
▁figures	-10.4126
putting	-10.4135
▁Military	-10.4141
ological	-10.4143
▁Amaterasu	-10.4144
▁Group	-10.4144
▁occupied	-10.4144
▁FUKU	-10.4144
suki	-10.4148
▁Ota	-10.4148
▁precincts	-10.4158
▁surrender	-10.4159
nouchi	-10.4163
▁Yoshinori	-10.4163
▁Heijo	-10.4166
under	-10.4166
▁Garden	-10.4172
Major	-10.4174
▁Yamaguchi	-10.4176
nate	-10.4182
▁needed	-10.4185
▁player	-10.4195
▁Rokujo	-10.4197
▁council	-10.42
▁concerned	-10.4202
▁comic	-10.421
▁rich	-10.4214
▁obtain	-10.4215
▁confirmed	-10.4216
scription	-10.4216
▁miso	-10.4219
▁Kofun	-10.4227
▁implemented	-10.4229
ency	-10.423
Sai	-10.4241
ME	-10.4242
▁supporting	-10.4247
cious	-10.4249
▁fo	-10.4254
▁AKECHI	-10.4255
▁Rebellion	-10.4255
▁temperature	-10.4255
▁corner	-10.4255
▁Of	-10.4256
▁returning	-10.4256
▁Reizei	-10.4256
▁donated	-10.4258
imperial	-10.4259
▁500	-10.4269
▁requir	-10.4272
iving	-10.4276
▁2000	-10.4283
▁municipal	-10.4283
▁College	-10.4283
▁campaign	-10.4283
▁shamisen	-10.4283
▁expert	-10.4283
reki	-10.4284
▁SEN	-10.4291
▁explained	-10.4291
▁Asahi	-10.4292
▁Shichi	-10.4295
not	-10.4298
▁chosen	-10.4299
Hon	-10.43
▁Age	-10.4309
▁instruction	-10.4311
kara	-10.4331
tani	-10.4336
▁doubt	-10.4339
▁nickname	-10.4339
▁Song	-10.4342
▁fear	-10.4349
▁separate	-10.4362
▁fortune	-10.4368
▁percent	-10.437
▁Hoku	-10.4381
script	-10.4389
▁Old	-10.439
nning	-10.4396
▁Following	-10.4396
▁progress	-10.4396
▁herself	-10.4396
▁rumor	-10.4396
▁Udon	-10.4396
▁grain	-10.4397
▁Okinawa	-10.4397
ppointed	-10.4401
HO	-10.4412
▁extend	-10.4413
▁features	-10.4417
▁Masako	-10.4419
▁Platform	-10.4424
JIMA	-10.4426
▁alive	-10.4426
▁Shimazu	-10.443
▁JNR	-10.4453
▁Siege	-10.4453
▁flat	-10.4453
gei	-10.4455
▁advocated	-10.4457
▁Yuan	-10.4459
▁Tsushima	-10.4468
▁reality	-10.4469
nish	-10.4473
▁tend	-10.4476
▁pillar	-10.4481
▁Gin	-10.4484
▁entertainment	-10.4485
▁musical	-10.4494
▁(17	-10.4494
▁popularity	-10.4497
nagi	-10.4499
▁harvest	-10.451
▁stood	-10.451
▁Murakami	-10.4512
▁Yamagata	-10.4514
Outer	-10.4522
▁integrated	-10.4539
▁width	-10.4539
count	-10.4544
▁dispatch	-10.4556
▁achievement	-10.4558
▁seated	-10.4563
▁bottom	-10.4568
▁changing	-10.4568
warring	-10.4568
▁evening	-10.457
mata	-10.457
▁tourist	-10.4571
▁adding	-10.4572
ddle	-10.4578
▁Togu	-10.4581
▁oil	-10.4582
telling	-10.4585
▁10,000	-10.4589
▁imposed	-10.4597
▁felt	-10.4597
▁search	-10.4598
mage	-10.4598
▁fee	-10.4604
▁criminal	-10.4625
▁deceased	-10.4625
▁count	-10.4635
▁concluded	-10.4639
▁effort	-10.4644
▁agricultural	-10.4655
▁defend	-10.4655
▁dancing	-10.4655
▁allied	-10.4656
▁basically	-10.4657
▁Ar	-10.4659
tsume	-10.4662
▁shot	-10.4667
with	-10.4674
▁fierce	-10.4684
▁agreement	-10.4684
▁sick	-10.4684
trust	-10.469
born	-10.4696
▁clearly	-10.4702
▁transport	-10.4708
▁KYOGOKU	-10.4713
▁pull	-10.4713
▁ability	-10.4715
▁Honen	-10.4718
▁Iemitsu	-10.4719
▁Bon	-10.4726
▁bushi	-10.473
▁crossing	-10.4733
▁drive	-10.4734
!	-10.4742
▁citizen	-10.4742
▁scriptures	-10.4742
▁Shosanmi	-10.4742
▁huge	-10.4742
▁1872	-10.475
master	-10.475
ever	-10.4754
▁Otani	-10.4758
▁Kitano	-10.4758
▁rush	-10.476
tress	-10.4763
▁Yoshida	-10.4765
kashi	-10.477
▁distributed	-10.4772
▁media	-10.4773
▁pine	-10.4773
▁aimed	-10.4775
On	-10.4779
▁taxi	-10.4781
second	-10.4781
▁Myoo	-10.4783
position	-10.4785
TOMI	-10.4788
▁OKUBO	-10.4801
▁Region	-10.4801
▁subordinate	-10.4804
▁Shiro	-10.4807
umi	-10.4808
cket	-10.4809
front	-10.4812
▁Jito	-10.4815
tara	-10.4817
▁Aichi	-10.4818
▁finished	-10.4825
▁decoration	-10.4831
▁magazine	-10.4831
▁SAIGO	-10.4831
▁Dis	-10.4838
▁Taisha	-10.4839
▁Yoshihiro	-10.4845
▁Kanrei	-10.4845
▁Kishu	-10.4857
cap	-10.4858
▁ceremonial	-10.4859
▁advisor	-10.486
▁mouth	-10.486
の	-10.4861
▁Sessho	-10.4862
▁Horikawa	-10.4862
family	-10.4871
▁mere	-10.4874
tric	-10.4874
▁liter	-10.4879
▁(12	-10.4882
▁cultivat	-10.4885
fish	-10.4885
▁better	-10.4889
▁exclud	-10.489
▁license	-10.489
ept	-10.4902
▁displayed	-10.4904
▁tools	-10.4905
Mei	-10.4911
▁script	-10.4915
taki	-10.4918
▁carrying	-10.4918
▁parents	-10.4919
▁fifty	-10.492
▁victory	-10.492
tachi	-10.492
▁interpretation	-10.4923
▁snow	-10.4924
▁Kuma	-10.4926
Prince	-10.4931
ility	-10.4933
▁America	-10.4935
▁OUCHI	-10.4935
▁understand	-10.4936
ranked	-10.4938
▁Diary	-10.4942
▁strength	-10.4943
currently	-10.4945
▁HATAKEYAMA	-10.495
▁flute	-10.495
▁pupil	-10.495
▁newspaper	-10.495
such	-10.4978
▁Tenchi	-10.498
seven	-10.498
▁armed	-10.4981
▁Kazusa	-10.4982
▁restrict	-10.4982
▁Nagato	-10.4982
▁insisted	-10.4985
▁shaku	-10.4985
about	-10.499
play	-10.4992
January	-10.4992
general	-10.4994
▁mission	-10.4994
▁Fukui	-10.4998
▁setting	-10.4999
▁arch	-10.5005
▁vegetables	-10.5006
▁hill	-10.5008
▁crime	-10.501
▁Kaoru	-10.501
▁secular	-10.5011
▁Rinzai	-10.5011
▁key	-10.5011
wan	-10.5014
▁2003	-10.5015
▁comm	-10.5021
▁spec	-10.5025
▁celebrated	-10.5026
bayashi	-10.5039
▁possibility	-10.504
▁indicated	-10.5059
▁Chin	-10.5061
nichi	-10.5063
▁hours	-10.5064
centralized	-10.5066
▁Four	-10.5067
▁preparation	-10.5071
▁residential	-10.5071
firm	-10.5073
▁studying	-10.5078
▁Tosho	-10.5079
▁Shio	-10.5079
Record	-10.5084
J	-10.5092
▁navy	-10.5101
▁easy	-10.5101
▁pond	-10.5105
Ryo	-10.5106
▁Momoyama	-10.5111
▁tenth	-10.5111
▁Fusa	-10.5112
▁1867	-10.5113
ancient	-10.5115
nawa	-10.5115
wood	-10.5115
▁Nagayoshi	-10.5121
▁33	-10.5123
▁Limited	-10.5125
▁drinking	-10.5127
▁Tetsu	-10.5128
▁Branch	-10.5132
▁appeal	-10.5132
▁elements	-10.5132
▁speak	-10.5132
▁thirteen	-10.5132
▁thanks	-10.5133
▁Shikoku	-10.5133
awase	-10.5137
▁0	-10.5142
Shoku	-10.5149
▁Tsuki	-10.5151
▁steam	-10.5152
ifying	-10.5155
▁governed	-10.5156
▁our	-10.5159
▁caught	-10.5162
▁examination	-10.5162
▁myth	-10.5163
vol	-10.5164
▁passing	-10.5167
En	-10.5168
guri	-10.5177
▁moat	-10.5184
zi	-10.519
▁expanded	-10.5191
mple	-10.5198
pel	-10.5199
▁Tengu	-10.5202
hereditary	-10.5208
▁abandoned	-10.5208
▁mine	-10.521
▁branches	-10.5216
▁mochi	-10.5226
▁Funa	-10.5228
▁outer	-10.5231
▁construct	-10.5239
made	-10.5243
▁illustrat	-10.5246
▁imported	-10.5254
▁Tottori	-10.5254
▁Sanin	-10.5261
▁praised	-10.5265
▁explain	-10.5276
matic	-10.5276
▁Saku	-10.5277
▁Engi	-10.5277
▁oblig	-10.5285
▁captain	-10.5285
▁archery	-10.5286
▁Makino	-10.5299
▁Yoshisada	-10.53
cm	-10.5312
=	-10.5316
▁Subsequently	-10.5316
▁combined	-10.5316
▁sovereignty	-10.5317
▁Sekkan	-10.5319
▁corresponding	-10.5326
Middle	-10.5334
▁enjoyed	-10.5339
▁SUGAWARA	-10.5348
▁Priest	-10.5348
▁representing	-10.5356
▁suggests	-10.5357
▁Tea	-10.536
▁stored	-10.5361
my	-10.5362
where	-10.5365
▁prefixed	-10.5369
▁economy	-10.5379
▁ghost	-10.5379
▁operating	-10.5379
▁devoted	-10.5387
▁Yoshihisa	-10.5391
▁exception	-10.5397
▁Car	-10.5403
▁Civil	-10.541
▁Normal	-10.541
▁murder	-10.541
▁purchase	-10.541
based	-10.5412
▁alone	-10.5412
▁Tsunayoshi	-10.5413
▁Imagawa	-10.5416
haya	-10.5418
▁containing	-10.5418
▁proposal	-10.5442
▁reputation	-10.5442
▁understood	-10.5442
▁DATE	-10.5442
▁trend	-10.5442
sashi	-10.5442
▁Ikko	-10.5445
▁Inaba	-10.5447
▁Master	-10.546
▁Both	-10.5461
KAMI	-10.5463
▁Studio	-10.5473
▁utensil	-10.5473
▁Nikko	-10.548
story	-10.5482
▁Councilor	-10.5487
▁Okubo	-10.5493
▁arrested	-10.55
▁address	-10.5505
▁Disturbance	-10.5505
▁behavior	-10.5505
▁Mandala	-10.5505
▁Besides	-10.5505
▁yeast	-10.5505
SAI	-10.5509
▁secretary	-10.551
▁initially	-10.5516
▁Shomu	-10.5521
Chief	-10.5524
▁appoint	-10.5524
▁Kyogen	-10.5528
Kei	-10.5528
▁Society	-10.5537
▁reorganized	-10.5537
▁Rokkaku	-10.5537
▁anthology	-10.5537
▁pilgrimage	-10.5537
▁opposition	-10.5537
▁Historical	-10.5537
▁Lord	-10.5539
▁laid	-10.5539
▁shogunal	-10.5543
off	-10.5546
ject	-10.555
▁visiting	-10.5558
▁Literature	-10.5568
▁punished	-10.5568
▁Fukushima	-10.5574
▁Or	-10.5577
Gen	-10.5579
▁Russia	-10.5585
sama	-10.5585
grand	-10.5593
HIRO	-10.5596
▁Ezo	-10.5597
▁Ii	-10.5598
▁Gosho	-10.5599
▁Statue	-10.56
dayu	-10.5602
▁secure	-10.5603
▁Iwakura	-10.5605
▁1863	-10.5608
▁Reform	-10.5611
daka	-10.5612
▁Matsuri	-10.5615
▁loved	-10.5631
▁proceed	-10.5633
▁blue	-10.5634
▁worshipped	-10.5634
"(	-10.5635
▁kuge	-10.5648
▁Abe	-10.565
December	-10.5653
▁expected	-10.5657
▁International	-10.5665
▁SAITO	-10.5665
▁flourished	-10.5665
▁Kameoka	-10.5665
▁guide	-10.5665
▁landscape	-10.5666
▁spi	-10.5666
scended	-10.5678
▁acting	-10.5678
▁Keicho	-10.5679
▁Special	-10.5685
▁rear	-10.5686
▁eyes	-10.5696
▁HORI	-10.5698
▁Republic	-10.5698
▁strip	-10.5699
▁raise	-10.5707
▁preserved	-10.5708
▁American	-10.5713
▁Sanyo	-10.5718
▁rapidly	-10.5724
▁Ogura	-10.5726
▁Taku	-10.5729
▁genealogy	-10.5729
▁float	-10.573
▁income	-10.5732
▁players	-10.5733
▁Horyu	-10.5736
rough	-10.5738
▁Ryoma	-10.574
kkyo	-10.5742
raw	-10.5751
ogi	-10.5753
▁claimed	-10.5756
▁Representative	-10.5762
▁investigation	-10.5762
▁fishing	-10.5766
▁experience	-10.5771
▁secretly	-10.5773
▁Furu	-10.5774
▁feature	-10.5776
gyu	-10.5783
National	-10.5784
mentioned	-10.5784
▁supply	-10.5794
▁facing	-10.5796
▁recently	-10.5805
▁*	-10.5805
▁seek	-10.5809
▁Taiho	-10.581
npei	-10.5813
▁thereby	-10.5817
▁cooperat	-10.5822
▁Police	-10.5827
▁Studies	-10.5827
▁fresh	-10.5827
▁Hata	-10.5827
▁criticism	-10.5828
▁departed	-10.5831
▁assert	-10.5831
▁consideration	-10.5836
Ken	-10.5844
▁Taro	-10.585
▁Hogen	-10.5851
▁attitude	-10.586
▁competition	-10.586
▁opponent	-10.586
▁struggle	-10.586
▁finance	-10.586
▁Niigata	-10.5861
▁Expressway	-10.5862
▁MIYA	-10.5864
▁Kotsu	-10.5867
▁begin	-10.5873
▁soft	-10.5889
▁prove	-10.5889
mark	-10.5892
▁opportunity	-10.5893
▁opposite	-10.5893
▁plum	-10.5895
▁killing	-10.5895
▁remark	-10.5899
two	-10.591
▁protected	-10.5916
gashira	-10.5918
minute	-10.5925
▁impossible	-10.5926
▁distribution	-10.5926
ZAKI	-10.5926
ball	-10.5927
▁Kenshin	-10.5927
▁electric	-10.5933
▁MAEDA	-10.5959
▁compilation	-10.5959
▁altar	-10.5959
▁unclear	-10.5964
▁Yoshimoto	-10.5964
▁page	-10.5965
koro	-10.5972
▁European	-10.5973
▁success	-10.5976
▁shosho	-10.5981
▁predecessor	-10.5992
▁warm	-10.5993
▁Christianity	-10.5996
▁moment	-10.6014
book	-10.6016
▁trial	-10.6016
military	-10.6017
▁suffer	-10.6019
▁Iku	-10.6022
▁Jomon	-10.6025
▁Capital	-10.6025
▁luck	-10.6025
current	-10.6032
▁contribution	-10.6036
Master	-10.6054
▁Baekje	-10.6059
▁Throne	-10.6059
▁bronze	-10.6059
▁trading	-10.6059
body	-10.6066
▁Sanju	-10.6066
▁Yamada	-10.6073
▁Bungo	-10.6075
▁layer	-10.6081
brother	-10.6085
▁entertain	-10.6089
▁accompany	-10.6092
▁explanation	-10.6092
▁monogatari	-10.6092
▁daisho	-10.6094
▁classification	-10.6096
night	-10.6097
▁privilege	-10.6099
▁lay	-10.6101
Noh	-10.6102
▁educational	-10.6103
bout	-10.6107
▁hole	-10.6111
quarter	-10.6124
▁NIJO	-10.6126
▁commemorat	-10.6126
▁governmental	-10.6128
▁argue	-10.6129
▁spent	-10.6131
▁passage	-10.6133
same	-10.6134
▁1889	-10.6135
first	-10.6153
third	-10.6153
▁schedule	-10.616
▁Nippon	-10.616
vocation	-10.616
▁Prime	-10.616
▁Each	-10.616
▁cooperation	-10.6165
▁Academy	-10.6194
▁appropriate	-10.6194
Naga	-10.6197
gle	-10.6205
▁Mie	-10.6214
▁eel	-10.622
Tokyo	-10.6221
▁Local	-10.6223
▁KONDO	-10.6228
▁Mausoleum	-10.6228
▁completion	-10.6228
▁nationwide	-10.6228
▁producing	-10.6228
▁message	-10.6228
abolition	-10.6228
▁Oaza	-10.6228
▁represented	-10.623
common	-10.6242
▁Nihongi	-10.6246
▁looked	-10.6255
▁filled	-10.626
▁Especially	-10.6262
国	-10.6262
▁emphasize	-10.6263
May	-10.6265
▁invaded	-10.6271
▁Award	-10.6273
▁Kujo	-10.6276
▁announc	-10.629
▁premise	-10.6296
▁visitors	-10.6297
▁Dr	-10.6298
▁suit	-10.6301
▁Warr	-10.6306
▁shell	-10.6306
▁Hiki	-10.6311
▁wine	-10.6317
▁notice	-10.6321
▁Taki	-10.6326
▁Mai	-10.6328
Head	-10.6328
▁Pu	-10.6329
▁leaf	-10.633
▁least	-10.6331
▁clean	-10.6331
▁accus	-10.6331
▁assassinated	-10.6332
▁unified	-10.6339
▁container	-10.6343
rank	-10.6345
Ichi	-10.6361
▁Origin	-10.6363
子	-10.6365
▁Hakodate	-10.6365
approx	-10.6365
▁folding	-10.6365
▁retirement	-10.6366
▁Suo	-10.6389
▁helped	-10.6392
▁advocat	-10.6394
▁Yang	-10.6397
▁1873	-10.6399
▁disaster	-10.6399
▁overseas	-10.64
▁pressure	-10.64
▁kon	-10.6401
▁KATO	-10.6402
guard	-10.6403
▁quickly	-10.6407
▁broken	-10.6407
▁pan	-10.6408
▁Tajima	-10.641
▁Sino	-10.641
▁pun	-10.6413
▁Shigemori	-10.6418
▁Hori	-10.6423
▁colored	-10.6428
▁Further	-10.6434
▁combination	-10.6434
▁judicial	-10.6434
▁brush	-10.6434
▁speed	-10.6434
▁Yokohama	-10.6435
▁contain	-10.6437
▁Chamberlain	-10.644
▁1864	-10.6444
▁Komyo	-10.6446
Matsu	-10.6457
▁map	-10.6461
▁Saicho	-10.6462
▁Kondo	-10.6466
▁occur	-10.6467
▁Thousand	-10.6469
▁situated	-10.6469
▁Poems	-10.6469
▁want	-10.6472
▁Sixth	-10.6478
▁1582	-10.648
▁skin	-10.6485
▁cup	-10.6494
▁Naishi	-10.6504
▁decorated	-10.6504
▁France	-10.6504
▁truth	-10.6504
▁Mongol	-10.6504
▁Engishiki	-10.6506
▁baby	-10.6507
▁Sanetomo	-10.6509
▁Jinmu	-10.652
fumi	-10.6524
▁Tozai	-10.6526
▁staying	-10.6532
Fuku	-10.6534
▁Nenbutsu	-10.6539
MATSU	-10.6541
▁improvement	-10.6542
▁regime	-10.6544
▁Kyogoku	-10.6545
▁Refer	-10.6547
▁team	-10.6556
place	-10.6573
▁estimated	-10.6574
▁squad	-10.6574
▁foster	-10.6576
▁contract	-10.6576
mikoto	-10.6585
this	-10.6593
ugh	-10.6593
located	-10.6597
▁dated	-10.6603
February	-10.6608
March	-10.6609
▁Rapid	-10.661
▁plain	-10.661
▁Sukune	-10.661
▁Lotus	-10.661
▁resembl	-10.661
▁previously	-10.6615
gram	-10.6623
▁1870	-10.6623
Minor	-10.6633
▁replac	-10.6635
▁jun	-10.6641
Great	-10.6643
▁Culture	-10.6645
▁fundoshi	-10.6645
▁agreed	-10.6646
▁repeat	-10.6647
Ga	-10.6652
Shinto	-10.6652
▁whereas	-10.6654
▁survived	-10.6656
▁Kazan	-10.6658
▁Generally	-10.6659
▁wore	-10.6667
iff	-10.6677
▁eliminat	-10.6681
pseudonym	-10.6681
▁HAYASHI	-10.6681
▁ladies	-10.6681
▁marry	-10.6681
▁specified	-10.6682
Incidentally	-10.6683
▁calling	-10.6684
▁career	-10.6684
▁Sado	-10.6685
▁Hidetsugu	-10.6688
▁cutting	-10.6688
HA	-10.6692
▁kokuga	-10.67
▁comment	-10.6701
▁Hakata	-10.6701
▁counter	-10.6702
▁nun	-10.6713
▁SAKANOUE	-10.6716
▁revived	-10.6716
▁discontinued	-10.6716
▁Service	-10.6716
▁Yayoi	-10.6717
▁dog	-10.6717
▁flee	-10.6719
▁unlike	-10.6723
▁ever	-10.6726
bana	-10.6726
geki	-10.6729
▁Boshin	-10.6735
▁Bodhisattva	-10.674
▁valued	-10.6746
▁compos	-10.6749
hatsu	-10.6749
▁consequently	-10.6752
▁personnel	-10.6752
pr	-10.6754
▁feel	-10.6755
▁1997	-10.6755
▁Yoshiteru	-10.6758
▁burnt	-10.6764
▁Yoriie	-10.6768
▁Daitoku	-10.6772
▁distinguish	-10.6784
▁Hoki	-10.6786
▁centimeters	-10.6788
▁cuisine	-10.6788
▁straight	-10.6788
▁blade	-10.6788
▁SANJO	-10.6788
▁KATSURA	-10.6789
▁Head	-10.6789
▁Ohara	-10.6791
▁Masu	-10.6791
▁Shimogyo	-10.6797
▁Ueno	-10.6798
teki	-10.6815
▁KURODA	-10.6824
▁TANAKA	-10.6824
▁Yawata	-10.6824
▁edited	-10.6824
▁profit	-10.6824
▁printed	-10.6825
▁elementary	-10.6827
▁reconstruction	-10.6827
▁depart	-10.6827
Kita	-10.6828
▁discussion	-10.6834
▁titled	-10.6835
arch	-10.684
▁describe	-10.684
▁Masanori	-10.6841
Take	-10.6842
▁subsequent	-10.6842
▁selling	-10.685
▁sum	-10.6853
▁limit	-10.6857
▁jurisdiction	-10.6861
▁philosophy	-10.6861
▁prosperity	-10.6861
▁Production	-10.6861
▁armor	-10.6861
ichiro	-10.6869
▁Hideyori	-10.6869
▁Tora	-10.687
▁Saemon	-10.6875
▁formation	-10.6886
▁tall	-10.6892
▁museum	-10.6897
▁pronunciation	-10.6897
▁whale	-10.6897
▁collectively	-10.6897
▁Secretary	-10.6897
▁Tanabe	-10.6901
▁stream	-10.6903
back	-10.6907
▁Yomei	-10.6912
▁Sp	-10.6919
URA	-10.6928
▁centered	-10.693
lementary	-10.6931
▁declared	-10.6933
▁erected	-10.6933
▁importance	-10.6933
▁vicinity	-10.6933
▁goddess	-10.6933
▁indicating	-10.6933
▁Board	-10.6935
▁believers	-10.6937
▁possession	-10.6938
▁trace	-10.6938
▁Genroku	-10.6952
▁OE	-10.6954
▁Tenjin	-10.6962
gatsu	-10.6966
▁numerous	-10.697
▁rejected	-10.697
▁obi	-10.697
▁eye	-10.6974
▁1600	-10.6975
▁coat	-10.6976
▁Mibu	-10.6981
▁Asian	-10.6983
▁decreased	-10.6984
inter	-10.6996
toge	-10.7006
immediate	-10.7007
▁confusion	-10.7007
▁thing	-10.701
small	-10.7013
▁Died	-10.702
ier	-10.704
▁twice	-10.7044
▁SASAKI	-10.7044
▁dream	-10.7044
formal	-10.7054
▁Minbu	-10.7067
▁expedition	-10.707
mble	-10.7076
bura	-10.7077
▁IKEDA	-10.7081
▁Headquarters	-10.7081
▁Ibaraki	-10.7081
▁expense	-10.7081
▁repeatedly	-10.7081
▁Odawara	-10.7083
▁Lady	-10.7084
▁1931	-10.7084
▁usage	-10.7084
found	-10.7086
▁resided	-10.7097
▁insist	-10.7112
▁security	-10.7118
▁stipulat	-10.7118
▁enacted	-10.7118
▁prison	-10.7118
▁roughly	-10.7118
▁Emishi	-10.7118
▁compete	-10.7118
▁larger	-10.7119
▁chance	-10.7122
▁Ryukyu	-10.7123
▁1990	-10.7124
▁grow	-10.7126
▁publication	-10.7127
right	-10.7129
▁ISHI	-10.7132
▁Director	-10.7133
▁cra	-10.7135
▁tanka	-10.7139
▁indicate	-10.7142
▁trying	-10.7147
▁flood	-10.7155
▁valuable	-10.7155
▁dark	-10.7155
▁Hyaku	-10.7156
fune	-10.7158
▁customers	-10.7171
▁fat	-10.718
▁Takakuni	-10.7191
▁manufacturing	-10.7193
▁hope	-10.7195
▁mistake	-10.7196
▁ONOE	-10.7197
▁Naniwa	-10.7197
▁dye	-10.7198
▁observed	-10.7204
▁whereby	-10.7205
▁Tokai	-10.7208
▁tribute	-10.7209
▁restore	-10.721
▁Kochi	-10.722
▁implement	-10.7228
▁oppos	-10.7228
▁Goryo	-10.7228
▁accompaniment	-10.723
▁category	-10.723
▁library	-10.723
神	-10.7231
▁exempt	-10.7231
▁Wi	-10.7231
▁admir	-10.7231
▁finger	-10.7234
▁Toshiie	-10.7245
▁promote	-10.7245
▁Yoro	-10.7245
▁Yoshitoki	-10.7246
▁exile	-10.7248
▁Tu	-10.7252
▁MIZUNO	-10.7268
▁mythology	-10.7269
▁hanging	-10.7271
▁Sumiyoshi	-10.7272
▁considering	-10.7273
Nishi	-10.7278
▁pure	-10.7283
▁race	-10.7287
▁smaller	-10.7287
▁test	-10.7289
inspector	-10.729
▁Building	-10.7306
▁Consequently	-10.7306
▁KANZE	-10.7306
▁Railroad	-10.7306
▁essential	-10.7306
▁patron	-10.7306
▁brave	-10.7307
▁fruit	-10.7307
word	-10.7309
government	-10.7312
▁add	-10.7315
▁nearly	-10.7315
▁Kokin	-10.7319
▁Togoku	-10.7325
▁Yoshitada	-10.7326
▁Name	-10.7326
most	-10.7329
▁Kaneie	-10.7338
▁argument	-10.7344
▁imitat	-10.7348
▁Kanagawa	-10.7349
▁touch	-10.7354
▁creation	-10.7358
Heian	-10.7359
▁draw	-10.7362
▁revealed	-10.7364
・	-10.7382
▁worse	-10.7384
▁Kanezane	-10.7386
▁acid	-10.7388
▁reconstructed	-10.7393
gawara	-10.7398
▁IWA	-10.7405
▁Interchange	-10.742
▁conference	-10.742
▁twelve	-10.742
▁Women	-10.742
▁composition	-10.7423
▁suitable	-10.7424
▁assassination	-10.7424
governor	-10.7427
▁Site	-10.7438
arious	-10.744
▁wait	-10.7442
>	-10.7449
related	-10.7451
▁Koho	-10.7455
▁sole	-10.7455
▁sin	-10.7457
▁categorized	-10.7459
▁confrontation	-10.7459
▁Color	-10.7465
▁seasoning	-10.7469
▁posthumously	-10.7469
▁realized	-10.7472
▁See	-10.7472
▁waiting	-10.7479
▁closely	-10.7486
Miya	-10.7492
▁publish	-10.7496
▁Shonin	-10.7497
▁Suzaku	-10.7497
▁transform	-10.7497
▁hung	-10.7498
Yamato	-10.7499
▁1950	-10.7503
▁chamberlain	-10.7506
▁Awaji	-10.7519
▁successful	-10.7519
▁cat	-10.7521
▁Masamoto	-10.7527
▁inherit	-10.7533
Amitabha	-10.7536
▁frame	-10.7536
▁Qu	-10.7537
▁supreme	-10.7538
▁danger	-10.7538
cco	-10.7542
▁cultivation	-10.7543
August	-10.7545
▁jito	-10.7551
▁launched	-10.7552
▁precinct	-10.7555
▁junior	-10.7557
▁exhibit	-10.7562
zake	-10.7563
▁governing	-10.757
▁guarded	-10.7573
▁abroad	-10.7575
▁incense	-10.7575
▁contest	-10.7575
山	-10.7575
王	-10.7575
▁quarters	-10.7578
▁2002	-10.758
▁1980	-10.7581
April	-10.7584
▁Heiji	-10.7588
▁collapsed	-10.7595
▁discussed	-10.7597
sake	-10.7604
▁kosa	-10.7605
▁perfect	-10.7616
▁Matsudaira	-10.7616
▁wealthy	-10.7621
▁def	-10.7641
▁French	-10.7653
▁emerged	-10.7653
▁exercise	-10.7653
▁seppuku	-10.7653
▁entrusted	-10.7653
▁sitting	-10.7653
▁march	-10.7654
▁ISHIKAWA	-10.7654
puku	-10.7662
sauce	-10.7663
▁kugyo	-10.7665
▁bag	-10.7671
▁raid	-10.7671
▁Nii	-10.7673
▁suggested	-10.7675
▁detailed	-10.769
▁hat	-10.7691
▁cloister	-10.7692
▁presumed	-10.7693
▁welcome	-10.7693
▁steward	-10.7693
▁fiction	-10.7693
▁flag	-10.7694
▁underground	-10.7697
▁tie	-10.7698
rous	-10.7701
▁favored	-10.7706
▁Era	-10.7713
fold	-10.7721
▁Hachijo	-10.7721
▁scen	-10.7722
Kawa	-10.7723
▁Commerce	-10.7732
▁KUSUNOKI	-10.7732
▁Misasagi	-10.7732
▁approval	-10.7732
▁expelled	-10.7732
▁Pacific	-10.7732
▁presence	-10.7732
▁bills	-10.7733
▁Campus	-10.7733
▁1928	-10.7736
▁Nikki	-10.7737
▁moral	-10.7741
▁Russian	-10.7751
▁Kenmu	-10.7763
▁coup	-10.7765
etween	-10.7772
▁absorb	-10.7772
▁commenced	-10.7772
▁withdraw	-10.7772
▁Jugoinojo	-10.7772
▁Kawaramachi	-10.7774
▁1945	-10.7777
▁keeping	-10.778
▁fair	-10.7782
Assistant	-10.7783
July	-10.7788
large	-10.7789
▁Chuo	-10.7792
▁manage	-10.7794
▁calligraphic	-10.7812
▁Ikeda	-10.7812
▁hakama	-10.7814
▁1970	-10.7818
▁Dazaifu	-10.7821
▁->	-10.7822
mountain	-10.7823
▁Asano	-10.7826
Heike	-10.783
▁Jokyu	-10.7834
▁craft	-10.7836
▁vol	-10.7836
▁ratio	-10.7848
▁utiliz	-10.7852
▁vessel	-10.7852
NHK	-10.7852
▁Bicchu	-10.7852
▁demoted	-10.7852
▁resistance	-10.7854
▁Ikoma	-10.7854
▁ownership	-10.7854
▁Yamazaki	-10.7854
▁growing	-10.7859
▁Taishogun	-10.786
General	-10.7864
▁buy	-10.789
hitsu	-10.7892
▁accident	-10.7892
▁apparent	-10.7892
▁enthroned	-10.7892
▁lunch	-10.7892
▁moving	-10.7892
▁abolish	-10.7892
▁beyond	-10.7892
▁losing	-10.7892
▁mourn	-10.7892
▁YAMAMOTO	-10.7893
▁viewpoint	-10.7893
▁Promot	-10.7893
▁semi	-10.7905
making	-10.7914
▁broth	-10.7918
▁Development	-10.7932
▁responsibility	-10.7932
▁banished	-10.7932
▁bodies	-10.7932
▁destroy	-10.7933
▁IWAKURA	-10.7933
▁Goro	-10.7937
▁payment	-10.7941
feudal	-10.7945
▁Yorinaga	-10.7948
▁Tru	-10.7955
resident	-10.7956
▁delivered	-10.7957
▁Monjo	-10.7965
▁wet	-10.7969
X	-10.797
▁Zeami	-10.7973
▁ignor	-10.7973
▁false	-10.7973
▁peak	-10.7974
▁handle	-10.7976
tsugi	-10.7978
▁caus	-10.7979
▁Higo	-10.7985
▁Tate	-10.7987
▁Xi	-10.7998
▁trigger	-10.8013
▁Graduate	-10.8013
bune	-10.8014
Edo	-10.8014
▁Munemori	-10.8026
▁&	-10.8029
refer	-10.8031
▁roju	-10.8033
▁Chang	-10.8034
▁Continued	-10.8054
▁Tachibana	-10.8054
▁environment	-10.8054
▁sought	-10.8054
▁climb	-10.8054
▁blind	-10.8054
rchitectural	-10.8054
▁Tsuruga	-10.8054
▁stall	-10.8055
phy	-10.8062
▁1898	-10.8065
level	-10.807
national	-10.8079
▁necessarily	-10.8095
▁substitute	-10.8095
▁prohibit	-10.8096
▁descendent	-10.8096
▁HINO	-10.8099
▁1960	-10.8102
▁Nobutada	-10.8105
▁Unti	-10.811
▁grant	-10.8114
▁covering	-10.8119
▁Kengyo	-10.8122
▁enforced	-10.8136
▁expansion	-10.8136
▁Dajokan	-10.8136
▁confined	-10.8136
、	-10.8137
▁determin	-10.8138
▁nearby	-10.8139
▁Miyako	-10.814
▁Saitama	-10.8143
▁Osa	-10.8148
▁KANO	-10.815
Period	-10.8152
▁participate	-10.8154
board	-10.816
▁KITA	-10.8166
▁vehicle	-10.8178
▁wrestler	-10.8178
▁deprived	-10.8178
▁continuous	-10.8178
▁curry	-10.8178
▁Now	-10.8178
▁mask	-10.8181
rical	-10.8182
▁Chinju	-10.8183
▁improved	-10.8196
Koku	-10.8203
▁qua	-10.8208
▁Miyake	-10.8211
▁affected	-10.8211
▁relat	-10.8213
▁sheet	-10.8214
decorative	-10.8219
▁Public	-10.8219
▁Shoshiinoge	-10.8219
▁convey	-10.8219
▁Saionji	-10.8219
▁recommendation	-10.8221
WARA	-10.8224
▁lose	-10.8226
▁daytime	-10.823
bachi	-10.8231
▁diver	-10.8241
▁120	-10.8246
▁log	-10.825
▁Mata	-10.8253
kaze	-10.8253
▁GOTO	-10.8261
▁nenbutsu	-10.8261
Gyokuyo	-10.8261
▁trusted	-10.8261
▁favorite	-10.8262
Waka	-10.8263
▁Commander	-10.8266
▁Akashi	-10.8269
▁please	-10.827
▁Muraji	-10.8273
▁Masashige	-10.8276
Higashi	-10.8278
▁1,000	-10.8279
▁successfully	-10.8281
ception	-10.8281
▁referr	-10.8285
▁Shoku	-10.8286
▁shoulder	-10.8288
▁Imadegawa	-10.8303
▁complex	-10.8303
▁comprise	-10.8303
▁conventional	-10.8303
▁dissolved	-10.8303
▁chicken	-10.8303
▁OISHI	-10.8303
▁knew	-10.8303
▁1907	-10.8307
lum	-10.8314
tax	-10.8315
▁counted	-10.832
assistant	-10.832
▁Yoshiharu	-10.8321
▁gathering	-10.8336
▁benefit	-10.8345
▁neither	-10.8345
▁technology	-10.8345
▁warehouse	-10.8345
▁cook	-10.8348
September	-10.8363
▁Takamatsu	-10.8372
posed	-10.8382
neighboring	-10.8385
ARU	-10.8385
▁familiar	-10.8387
▁virtue	-10.8387
▁extent	-10.8387
▁Shochiku	-10.8387
▁expand	-10.8391
▁Part	-10.8396
▁converted	-10.8405
▁Home	-10.841
water	-10.8413
▁featur	-10.8421
▁Hav	-10.8427
▁Hundred	-10.8429
▁KATAOKA	-10.8429
▁YANAGI	-10.8429
▁precepts	-10.8429
▁resource	-10.8429
▁ASANO	-10.8429
▁potato	-10.8429
▁printing	-10.843
▁merit	-10.843
▁extra	-10.8433
▁fully	-10.8433
▁fill	-10.8435
▁harm	-10.8437
▁critic	-10.8439
▁Zui	-10.8445
▁strict	-10.8453
▁assume	-10.8453
▁core	-10.8456
▁Fumi	-10.8457
▁Kobun	-10.8461
▁faced	-10.8463
▁ICOCA	-10.8472
▁uniform	-10.8472
▁consult	-10.8472
人	-10.8472
▁Asakura	-10.8472
▁Preservation	-10.8473
Hei	-10.8473
▁choja	-10.848
▁detail	-10.8482
▁Hatsu	-10.8486
▁Toyama	-10.849
▁critical	-10.8502
established	-10.8503
▁dominant	-10.8515
▁permanent	-10.8515
Kami	-10.8516
▁spiritual	-10.8516
Bun	-10.8524
▁karate	-10.8529
▁SATO	-10.8533
▁arrive	-10.8534
October	-10.8535
▁exit	-10.8539
▁classes	-10.8542
nuki	-10.8542
▁golden	-10.8547
▁damaged	-10.8557
▁atmosphere	-10.8558
▁enemies	-10.8558
▁equipment	-10.8558
▁occupation	-10.8558
▁wrong	-10.8558
▁threat	-10.8558
▁raising	-10.8558
一	-10.8558
▁dolls	-10.8559
▁Vice	-10.8575
lower	-10.859
▁parent	-10.8595
▁surprise	-10.8601
▁SUGI	-10.8601
▁kabane	-10.8601
▁tactic	-10.8601
▁invented	-10.8601
▁regardless	-10.8606
▁Tandai	-10.8615
▁Yorimasa	-10.8617
▁administrator	-10.8627
gaoka	-10.8631
ographic	-10.8635
▁hunting	-10.8644
▁IMAGAWA	-10.8644
▁industrial	-10.8644
▁suspended	-10.8644
▁Ecchu	-10.8644
▁contact	-10.8644
▁Peers	-10.8644
▁loss	-10.8645
Li	-10.8645
▁Flower	-10.8647
▁creating	-10.8648
▁riot	-10.8648
▁proper	-10.8651
▁Yorimichi	-10.8656
▁Six	-10.8679
south	-10.868
▁locomotive	-10.8687
▁physical	-10.8687
▁puppet	-10.8687
▁Regard	-10.8687
Man	-10.869
▁Tenshu	-10.8692
suming	-10.8701
▁Fuyu	-10.8703
▁operate	-10.8708
Ministry	-10.871
▁monme	-10.8711
▁suppressed	-10.8725
▁brigade	-10.8731
▁earthenware	-10.8731
▁failure	-10.8731
▁hunt	-10.8731
▁solid	-10.8732
▁sharp	-10.8732
wear	-10.8732
▁celebrate	-10.8752
November	-10.8754
samurai	-10.8754
▁seii	-10.8756
▁acquired	-10.8757
▁buckwheat	-10.8759
▁farming	-10.8759
▁Shinbun	-10.8763
ension	-10.8772
▁ordinance	-10.8775
▁providing	-10.8775
▁switch	-10.8775
▁stating	-10.8776
▁Ye	-10.8776
▁carved	-10.8778
▁careful	-10.8778
▁ice	-10.8789
▁Machi	-10.879
▁Jisho	-10.8791
Bureau	-10.8799
Importan	-10.8799
gake	-10.8807
▁elect	-10.8809
▁entitled	-10.8819
▁instructor	-10.8819
▁withdrew	-10.8819
▁voice	-10.8819
▁Ayabe	-10.8819
▁ISHIDA	-10.8821
SAKI	-10.8827
▁1890	-10.8835
▁graduated	-10.8836
▁180	-10.8841
▁sango	-10.8844
▁burning	-10.8856
▁yellow	-10.8863
▁historian	-10.8863
▁mansion	-10.8866
▁Tensho	-10.8871
▁majority	-10.8881
▁shifted	-10.8891
▁Tofuku	-10.8894
▁Senju	-10.8896
fine	-10.8899
track	-10.8903
continu	-10.8905
▁twelfth	-10.8908
▁England	-10.8908
▁vow	-10.8908
▁grass	-10.8909
▁renga	-10.8909
▁Sumitomo	-10.8909
▁prize	-10.891
▁Chikuzen	-10.8913
manor	-10.8914
▁1876	-10.8916
▁item	-10.8921
Bi	-10.8928
▁plac	-10.8934
▁Shogoinoge	-10.8952
▁candidate	-10.8952
▁sightseeing	-10.8952
▁drew	-10.8952
▁generated	-10.8952
▁protest	-10.8952
▁NOMURA	-10.8952
▁monjo	-10.8956
▁2001	-10.8959
▁abdicated	-10.8961
▁Naomasa	-10.8964
▁1877	-10.8967
▁1180	-10.8969
▁strictly	-10.8972
▁Seimei	-10.8975
▁understanding	-10.8976
ZA	-10.899
Defense	-10.8997
▁Th	-10.8999
▁governance	-10.8999
▁week	-10.9
▁President	-10.9
Taira	-10.9004
▁Katsumoto	-10.9007
▁Basho	-10.9009
supporters	-10.901
▁Area	-10.9012
▁save	-10.9013
▁donation	-10.9014
▁grown	-10.9016
▁chain	-10.9016
▁Totomi	-10.9017
▁realm	-10.9018
▁prepare	-10.9019
▁fast	-10.902
▁Ninna	-10.9031
▁retreated	-10.9037
approximately	-10.9037
▁resist	-10.9038
▁NITTA	-10.9042
▁strategy	-10.9042
▁poison	-10.9042
▁recruit	-10.9042
▁eleventh	-10.9049
▁1881	-10.9056
▁steamed	-10.9056
▁additionally	-10.9064
▁MAKINO	-10.9087
▁confiscated	-10.9087
▁vinegar	-10.9087
日	-10.9088
▁nurse	-10.9088
▁battlefield	-10.9089
▁Kagekatsu	-10.9092
▁election	-10.9097
▁OTA	-10.9099
▁Guard	-10.9102
▁Sutoku	-10.9108
iscal	-10.9123
▁wakashu	-10.9128
Lieutenant	-10.9133
▁automatic	-10.9133
▁excavation	-10.9133
▁prominent	-10.9133
▁smooth	-10.9133
▁fashion	-10.9133
Deputy	-10.9133
musubi	-10.9133
▁tendency	-10.9133
▁preservation	-10.9134
▁promise	-10.9135
▁Mandokoro	-10.9137
▁1987	-10.9138
▁retreat	-10.9138
▁Hida	-10.9142
▁statement	-10.9142
▁Fushiminomiya	-10.9143
▁1862	-10.9146
elected	-10.9167
▁rarely	-10.917
▁Bay	-10.9171
▁Sake	-10.9179
▁celebration	-10.9179
▁Hanazono	-10.9179
▁thread	-10.9179
▁separation	-10.918
structed	-10.9181
▁apply	-10.9181
▁Germany	-10.9188
kotoba	-10.9193
▁Nobutaka	-10.9199
▁collapse	-10.9201
▁separately	-10.9209
▁tied	-10.9213
▁Keishin	-10.9213
▁tip	-10.9223
Shakyamuni	-10.9224
▁Interior	-10.9224
▁paternal	-10.9224
▁1884	-10.9224
▁stamp	-10.9224
▁Hisahide	-10.9225
▁prime	-10.9225
▁Russo	-10.9225
▁Honnoji	-10.9225
▁regain	-10.9225
refined	-10.9226
▁Biography	-10.9226
▁Seven	-10.9227
▁Dainichi	-10.923
cular	-10.9231
town	-10.924
Heishi	-10.9256
▁mobiliz	-10.927
dharma	-10.9271
▁engineer	-10.9271
▁equipped	-10.9271
▁speech	-10.9271
▁Fire	-10.9272
▁chigyo	-10.9281
▁cool	-10.9282
▁growth	-10.9284
▁researchers	-10.9285
▁Usa	-10.9294
je	-10.9297
western	-10.9301
▁Gei	-10.9307
▁Setsu	-10.9308
HASHI	-10.931
▁Controller	-10.9317
▁horizontal	-10.9317
▁unusual	-10.9317
▁SAKAI	-10.9317
天	-10.9317
▁task	-10.9318
▁MIURA	-10.9318
▁hometown	-10.9318
▁Shinsen	-10.9321
▁catch	-10.9326
gged	-10.9336
communication	-10.9343
▁1918	-10.9363
▁SUZUKI	-10.9363
▁describing	-10.9363
▁esoteric	-10.9363
▁honorific	-10.9363
▁banquet	-10.9363
▁Currently	-10.9363
▁wild	-10.9363
Taiheiki	-10.9364
▁multiple	-10.9364
Zen	-10.9371
▁1910	-10.9373
▁seized	-10.9375
Kyu	-10.9378
▁Takatsuki	-10.9379
npaku	-10.9386
▁Kanei	-10.9391
▁Yoshitsugu	-10.9391
▁Water	-10.9392
▁hour	-10.9403
▁Kubo	-10.9403
▁Agriculture	-10.941
▁Ogasawara	-10.941
▁diameter	-10.941
▁Commission	-10.941
▁cotton	-10.941
▁Hikaru	-10.941
▁tatami	-10.941
▁disturbance	-10.9411
▁Danjuro	-10.9411
▁Takechi	-10.9422
▁Eizan	-10.9425
▁couple	-10.9426
▁Gunma	-10.9432
▁Amago	-10.9436
course	-10.9443
▁experienced	-10.9444
▁constitut	-10.945
▁Komei	-10.9454
▁arrival	-10.9457
▁recognition	-10.9457
▁monarch	-10.9458
▁birthplace	-10.946
▁Betto	-10.946
▁Rennyo	-10.9461
▁YAMADA	-10.9462
▁ascend	-10.9464
▁sail	-10.9468
▁interpreted	-10.9488
eastern	-10.9496
▁basin	-10.9504
▁fundamental	-10.9504
▁garment	-10.9504
▁syllables	-10.9506
June	-10.9507
▁sixty	-10.9515
▁decide	-10.9528
hyaku	-10.9533
▁enabl	-10.9539
History	-10.954
Keihan	-10.954
▁Kebiishi	-10.9552
▁circular	-10.9552
▁Former	-10.9552
illa	-10.9553
▁Kagetoki	-10.9555
▁KATSU	-10.9556
▁brand	-10.9558
gasa	-10.9568
▁county	-10.957
▁shoot	-10.9574
gusa	-10.9576
▁plea	-10.9579
▁Sakurai	-10.9586
Tokugawa	-10.9586
▁formally	-10.9593
▁ultimate	-10.9599
▁cloud	-10.9599
▁liquor	-10.9599
▁railroad	-10.9599
▁respond	-10.9599
▁soybean	-10.9599
▁wrapped	-10.96
▁advice	-10.96
▁narrative	-10.96
▁Kiyomizu	-10.9603
▁arrest	-10.9607
▁Noriyori	-10.9609
person	-10.9613
▁Nohgaku	-10.962
▁Saigoku	-10.9626
▁Umako	-10.9634
▁multi	-10.9646
▁complicated	-10.9647
▁execution	-10.9647
▁SAKAMOTO	-10.9647
▁Uzumasa	-10.9647
▁timetable	-10.9647
▁Hatamoto	-10.9651
▁1911	-10.9653
▁Yasutoki	-10.9657
▁1882	-10.966
▁Like	-10.967
owned	-10.9683
▁YAMAGATA	-10.9695
▁admitted	-10.9695
▁kingdom	-10.9695
▁Transportation	-10.9698
▁Yanagi	-10.9699
▁Higher	-10.9703
▁1185	-10.971
▁biwa	-10.9715
▁soldier	-10.9724
▁regulation	-10.9726
▁TAKATSUKASA	-10.9743
▁bloom	-10.9743
▁calligrapher	-10.9743
▁convenience	-10.9743
▁reserve	-10.9744
▁Design	-10.9747
▁rival	-10.9748
▁Nitta	-10.9748
▁Chugoku	-10.9749
▁400	-10.9761
▁Wei	-10.9762
Naka	-10.9765
▁ride	-10.9767
▁British	-10.9792
▁ROKKAKU	-10.9792
▁ceramic	-10.9792
▁Okuninushi	-10.9792
▁resignation	-10.9792
▁copied	-10.9792
▁Saburo	-10.9792
Historic	-10.9795
▁leadership	-10.9798
▁encouraged	-10.9807
▁Yorimori	-10.9813
Article	-10.983
daimyo	-10.9831
chiken	-10.9832
▁Justice	-10.9841
▁Leaves	-10.9841
▁breweries	-10.9841
▁scattered	-10.9841
▁adjust	-10.9841
▁vertical	-10.9841
▁Minato	-10.9841
▁beef	-10.9842
▁pork	-10.9843
▁Unlike	-10.9843
▁debt	-10.9844
▁panel	-10.9844
▁hairstyle	-10.9845
after	-10.985
grade	-10.9854
tract	-10.9867
▁linked	-10.9868
read	-10.9868
▁ideal	-10.9871
Yodo	-10.9877
▁loyal	-10.9888
▁1874	-10.989
▁keyhole	-10.989
▁wound	-10.989
▁Poets	-10.989
▁housing	-10.989
▁controll	-10.9892
▁push	-10.9895
▁Keifuku	-10.9899
▁Shimane	-10.9901
Tale	-10.9907
▁passenger	-10.9922
ffiliated	-10.9939
▁Chapter	-10.9939
▁independence	-10.9939
▁proclamation	-10.9939
▁studio	-10.9939
▁Film	-10.9939
▁straw	-10.9939
三	-10.9939
▁accomplish	-10.9939
▁activity	-10.9939
▁injured	-10.994
▁layout	-10.994
▁masterpiece	-10.994
▁Bingo	-10.994
▁outstanding	-10.9943
▁missionary	-10.9943
▁Mochihito	-10.9943
▁1989	-10.9945
▁1949	-10.9945
▁cub	-10.9946
▁affect	-10.9948
▁Men	-10.9975
▁150	-10.9984
▁exclusively	-10.9989
▁sufficient	-10.9989
▁wheat	-10.9989
▁Memorial	-10.9989
▁conquest	-10.9989
▁YASU	-10.9989
▁Life	-10.9991
▁govern	-10.9991
▁arose	-10.9995
▁Motonari	-11.0004
▁Hizen	-11.0013
▁AKAMATSU	-11.0038
▁Arisugawa	-11.0038
▁Nakatsukasa	-11.0038
▁sky	-11.0038
之	-11.0039
▁denied	-11.0039
▁select	-11.0041
▁banned	-11.0042
▁Vol	-11.0046
▁Teishi	-11.0046
Korea	-11.0054
▁Yi	-11.0078
▁wives	-11.0088
▁blow	-11.009
▁1926	-11.0092
▁violat	-11.0095
▁selection	-11.0096
▁shite	-11.0097
sisted	-11.0098
▁compile	-11.0115
Chamberlain	-11.0131
▁extension	-11.0139
▁Shimousa	-11.0139
▁Joruri	-11.0139
▁calm	-11.014
▁debate	-11.0142
▁curve	-11.0145
▁1000	-11.0146
▁pit	-11.0153
▁1875	-11.0153
▁gagaku	-11.0154
▁manufactured	-11.0156
cession	-11.017
▁saved	-11.0173
▁mill	-11.0177
Captain	-11.0182
miscellaneous	-11.0189
▁Ordinance	-11.0189
▁chronicle	-11.0189
▁parallel	-11.0189
▁1993	-11.0189
▁pottery	-11.0189
▁Hirobumi	-11.0189
▁achieve	-11.0195
▁finish	-11.02
▁Takakage	-11.0201
▁Toei	-11.0202
▁greatest	-11.021
▁designation	-11.0214
▁Tadamasa	-11.022
▁workers	-11.0235
gasaki	-11.0236
▁WATANABE	-11.024
▁adjacent	-11.024
▁photograph	-11.024
▁1895	-11.024
▁Hatakeyama	-11.024
▁freight	-11.024
▁virtually	-11.024
▁Inoue	-11.024
▁specifically	-11.0245
▁Takamori	-11.025
▁Coup	-11.0251
▁Omikami	-11.0252
▁1885	-11.0254
▁capture	-11.0272
▁HONDA	-11.0291
▁dwelling	-11.0291
▁executive	-11.0291
▁persuade	-11.0291
▁purple	-11.0291
▁angry	-11.0292
▁stable	-11.0292
▁1947	-11.0296
▁Reigen	-11.0301
▁insert	-11.0305
▁3,000	-11.0305
▁constitution	-11.0327
▁Soseki	-11.033
knowledge	-11.0336
▁Sanskrit	-11.0342
▁engraved	-11.0342
▁politician	-11.0342
▁club	-11.0342
▁Through	-11.0342
▁robe	-11.0367
fall	-11.0368
▁Tokuso	-11.037
▁KITABATAKE	-11.0394
▁Manchuria	-11.0394
▁Official	-11.0394
▁sculpture	-11.0394
▁copies	-11.0394
▁handled	-11.0396
▁1999	-11.04
▁Tokitada	-11.0403
nyorai	-11.0404
▁employ	-11.0404
▁Konoefu	-11.0405
▁scar	-11.0408
▁Tokimasa	-11.0409
▁Shichijo	-11.0418
▁safe	-11.0424
▁worth	-11.0432
▁seriously	-11.0433
view	-11.0435
▁broadcast	-11.0445
prostitute	-11.0445
▁Treasury	-11.0445
▁elevated	-11.0445
▁revenue	-11.0445
▁Counselor	-11.0445
▁Personal	-11.0446
▁terminal	-11.0446
▁average	-11.0446
▁wrap	-11.0446
▁Pond	-11.0449
▁distinction	-11.0449
▁friendship	-11.0449
▁authorities	-11.045
▁curse	-11.0451
▁burn	-11.0451
500	-11.0456
ranging	-11.0461
clock	-11.0468
▁Yin	-11.0472
▁initial	-11.0479
▁Yoshiakira	-11.0486
▁ingredient	-11.0492
BAYASHI	-11.0498
▁Izanagi	-11.0498
▁sixteen	-11.0498
▁application	-11.0498
▁mutual	-11.0498
▁informed	-11.0499
▁1996	-11.0502
▁1946	-11.0503
▁minted	-11.0506
▁Ienari	-11.0506
▁sort	-11.0512
▁improve	-11.0523
▁fudai	-11.0542
▁assassin	-11.0542
▁Miyagi	-11.0543
associate	-11.055
▁graveyard	-11.055
▁institute	-11.055
▁miyatsuko	-11.055
▁transition	-11.055
▁Shitenno	-11.055
▁inspection	-11.0551
▁ikki	-11.0554
▁1998	-11.0555
▁Sakamoto	-11.0556
down	-11.0584
▁Gra	-11.0595
▁Enyu	-11.0599
regent	-11.06
▁difficulty	-11.06
▁ASAKURA	-11.0603
▁Engineering	-11.0603
▁Liberal	-11.0603
▁borrow	-11.0603
▁merger	-11.0603
▁Kanazawa	-11.0603
Kokin	-11.0613
▁Hikone	-11.0615
▁expect	-11.0615
▁Yoriyuki	-11.0617
Honcho	-11.0617
Mon	-11.0617
▁Music	-11.0618
quality	-11.0623
▁Saigu	-11.0631
DE	-11.0632
▁SHIN	-11.0632
▁Wakoku	-11.0636
▁Keihanshin	-11.0638
▁German	-11.0644
▁reside	-11.0646
mitama	-11.0648
▁Teika	-11.0649
▁budget	-11.0655
▁bureau	-11.0655
▁extinct	-11.0655
▁moreover	-11.0656
▁Early	-11.0656
▁agency	-11.0656
▁planning	-11.0656
▁riding	-11.0656
▁Che	-11.066
▁ogre	-11.0665
▁specialized	-11.0671
▁taifu	-11.0672
▁characteriz	-11.0681
▁Dance	-11.0683
Three	-11.0707
Kamakura	-11.0707
▁Consort	-11.0709
▁INABA	-11.0709
▁lantern	-11.0709
▁variation	-11.0709
▁armies	-11.0709
▁What	-11.0709
express	-11.071
▁Okazaki	-11.071
▁contemporary	-11.071
▁exceptional	-11.0713
▁procession	-11.0716
▁slow	-11.0718
▁Tadaoki	-11.0719
▁Seventh	-11.0721
▁everyday	-11.0723
▁minor	-11.0729
▁alter	-11.0733
▁teach	-11.074
▁Tenpo	-11.0753
▁agriculture	-11.0762
▁categories	-11.0762
▁Kitakinki	-11.0762
▁weather	-11.0762
道	-11.0762
Secret	-11.0764
▁instance	-11.0764
▁safety	-11.0764
▁Sword	-11.0766
▁672	-11.077
▁Katsuie	-11.0773
▁Tadazane	-11.0776
▁install	-11.0777
▁Yasaka	-11.0778
▁1900	-11.0784
▁remove	-11.0785
▁Masayuki	-11.0785
point	-11.0789
▁SHIMO	-11.0797
Kashiwa	-11.0805
public	-11.0813
ceremony	-11.0815
▁uncertain	-11.0816
▁absolute	-11.0816
▁fourteenth	-11.0816
▁medium	-11.0816
▁slope	-11.0816
▁Kudara	-11.0816
▁Sonobe	-11.0816
▁supplement	-11.0816
dication	-11.0817
▁bottle	-11.082
▁Benkei	-11.0821
▁Nagahama	-11.0822
▁Rule	-11.0822
▁Katsuyori	-11.0823
▁reproduc	-11.0824
▁Kawara	-11.0827
▁Kiyomasa	-11.0831
▁Norinaga	-11.0832
Genpei	-11.0841
▁Yoshichika	-11.0843
▁Junna	-11.0852
▁Ceremony	-11.087
▁Dynasties	-11.087
▁dragon	-11.087
▁tunnel	-11.087
▁revenge	-11.087
senior	-11.087
▁mainstream	-11.0872
▁crack	-11.0873
▁1929	-11.0874
▁Sacr	-11.0876
▁1920	-11.0878
▁Harumoto	-11.0883
▁Nobukatsu	-11.0884
▁yokai	-11.0888
▁Tax	-11.0892
▁Ukon	-11.0895
▁Sonno	-11.0918
▁thorough	-11.0924
▁NAITO	-11.0924
▁abbot	-11.0924
▁capacity	-11.0924
▁enforcement	-11.0924
▁expensive	-11.0924
▁exploit	-11.0924
▁confection	-11.0924
▁coffin	-11.0924
▁sliding	-11.0924
people	-11.0924
▁burden	-11.0924
▁Perform	-11.0924
▁imina	-11.0925
claim	-11.0927
▁1905	-11.0929
▁dough	-11.0929
▁Susanoo	-11.0935
▁1897	-11.0936
▁1887	-11.0938
▁scenery	-11.0944
▁reduc	-11.0944
▁engag	-11.0948
▁gather	-11.0956
0%	-11.0967
▁Administration	-11.0979
▁Popular	-11.0979
▁detached	-11.0979
▁divination	-11.0979
▁journey	-11.0979
▁Nikkatsu	-11.0979
▁corps	-11.0979
▁biggest	-11.0979
▁Moronao	-11.0979
▁Heaven	-11.0979
▁retain	-11.098
▁Construction	-11.098
▁debut	-11.0982
▁boom	-11.0985
▁Nobushige	-11.0993
▁Eight	-11.0994
▁Onmyodo	-11.1005
▁Exhibition	-11.1034
▁surviving	-11.1034
▁universities	-11.1034
▁varieties	-11.1034
▁everything	-11.1034
colored	-11.1036
▁Shaku	-11.1037
▁downfall	-11.1038
▁difficulties	-11.1039
▁1925	-11.1039
▁SHO	-11.104
▁Iemochi	-11.104
▁1943	-11.1041
▁remov	-11.1062
▁Nakagyo	-11.1066
▁wave	-11.1084
Provinc	-11.1089
▁complain	-11.1089
▁chairman	-11.1089
▁essay	-11.1089
▁promulgated	-11.1089
▁Hyuga	-11.1089
▁contrary	-11.1089
▁radical	-11.1089
▁ridge	-11.1089
▁Omote	-11.1089
deputy	-11.1092
▁2009	-11.1094
▁Highway	-11.1095
▁appreciated	-11.1096
▁kyogen	-11.1098
▁cord	-11.11
▁1891	-11.1102
▁nishiki	-11.1103
▁1886	-11.1104
▁lake	-11.1117
▁sew	-11.1127
▁consolidat	-11.1145
▁crisis	-11.1145
▁Recently	-11.1145
▁managing	-11.1145
▁Career	-11.1145
▁enhance	-11.1145
▁Hotel	-11.1145
▁alternate	-11.1145
▁Fine	-11.1146
▁spend	-11.1148
Fushimi	-11.1148
▁KIRA	-11.1149
▁lotus	-11.1153
▁Scen	-11.1154
hachiman	-11.1156
q	-11.1168
▁starch	-11.118
▁Tsuchimikado	-11.1201
▁1995	-11.1201
▁Mimasaka	-11.1201
▁originator	-11.1201
FUJIWARA	-11.1204
▁1904	-11.1206
▁Indian	-11.1211
▁courtier	-11.1212
▁1896	-11.1212
▁specialty	-11.122
▁try	-11.1244
Bankoku	-11.1256
▁Mahayana	-11.1257
▁aristocracy	-11.1257
▁fermentation	-11.1257
▁primary	-11.1257
▁syllabary	-11.1257
▁drastic	-11.1257
SHIGE	-11.1257
comparable	-11.1257
本	-11.1257
▁NAKAYAMA	-11.1261
▁1965	-11.1263
▁affair	-11.1268
▁maiden	-11.1269
▁Nanzen	-11.1277
▁handling	-11.1283
flower	-11.1304
numa	-11.1306
▁Autumn	-11.1313
▁Ceremonial	-11.1313
▁MATSUNAGA	-11.1313
▁alternative	-11.1313
院	-11.1313
▁salary	-11.1313
▁Power	-11.1313
▁nyogo	-11.1314
▁compound	-11.1314
▁varies	-11.1316
tsuhiko	-11.1318
▁peaceful	-11.1319
private	-11.132
▁Seinan	-11.1327
▁happen	-11.133
▁Masahiro	-11.1331
zakura	-11.1334
▁Katsuragi	-11.1335
▁pack	-11.1342
▁agent	-11.1345
▁definition	-11.137
▁signature	-11.137
bestowed	-11.1371
▁1912	-11.1377
▁1940	-11.1377
▁KOGA	-11.1378
▁1183	-11.1391
▁fence	-11.1394
▁Yoshinari	-11.1405
Commentary	-11.1427
▁Brief	-11.1427
▁expulsion	-11.1427
▁1184	-11.1427
▁column	-11.1427
▁storage	-11.1427
▁cycle	-11.1427
▁WADA	-11.1427
▁deemed	-11.1427
▁townspeople	-11.1428
▁Shimabara	-11.1429
▁demise	-11.1429
▁SHIBATA	-11.1431
▁1988	-11.1434
▁Toyooka	-11.1435
▁Toshimichi	-11.1441
▁1865	-11.1443
▁1888	-11.1443
▁20,000	-11.1447
▁Kuroda	-11.1464
▁farmer	-11.1468
▁concentrated	-11.1485
▁loincloth	-11.1485
▁occupy	-11.1485
▁simplified	-11.1485
▁OKUMA	-11.1485
法	-11.1485
▁pepper	-11.1486
ttributed	-11.1488
birth	-11.1492
▁1879	-11.15
▁birthday	-11.151
▁homyo	-11.1511
▁rent	-11.1513
▁usual	-11.1525
▁37	-11.1541
▁originates	-11.1543
cloistered	-11.1543
▁jiuta	-11.1544
▁Korechika	-11.1549
▁lifetime	-11.1552
▁makeup	-11.1555
▁Sanesuke	-11.1561
▁Masanobu	-11.1569
▁mental	-11.158
▁Technology	-11.1601
▁coffee	-11.1601
▁enormous	-11.1601
▁hospital	-11.1601
▁impression	-11.1601
▁revival	-11.1601
▁ceased	-11.1601
▁editor	-11.1601
▁Eighth	-11.1604
▁1930	-11.1608
however	-11.1609
▁occasionally	-11.1609
▁lowest	-11.161
▁rope	-11.1619
▁prefix	-11.1619
▁Antoku	-11.162
etary	-11.1642
Trans	-11.1646
▁respective	-11.1653
Royal	-11.1655
syllable	-11.1657
▁Mononobe	-11.1659
▁afraid	-11.1659
▁brewed	-11.1659
▁elegant	-11.1659
▁judgment	-11.1659
▁leather	-11.1659
▁intersection	-11.1659
▁craftsmen	-11.1659
▁exceed	-11.1659
▁quiet	-11.1659
▁nengu	-11.1659
mawari	-11.1661
▁1951	-11.1666
break	-11.1668
Councilor	-11.1671
▁Bunroku	-11.1675
▁1899	-11.1677
▁reins	-11.168
▁Hiyoshi	-11.1694
▁KAMO	-11.1694
▁graduate	-11.1695
▁submit	-11.1718
▁FURU	-11.1718
▁cavalry	-11.1718
▁charcoal	-11.1718
▁concrete	-11.1718
▁honzon	-11.1718
▁Kashihara	-11.1718
▁departure	-11.172
▁missing	-11.1721
▁interval	-11.1722
▁1991	-11.1724
▁malt	-11.1728
Later	-11.1728
▁TOKI	-11.1729
▁hotel	-11.1731
▁1894	-11.1731
▁Tameyoshi	-11.1732
▁Mototsune	-11.1736
▁Shigenobu	-11.1739
personal	-11.174
north	-11.1745
councillor	-11.1759
▁Qi	-11.1767
▁Gomizunoo	-11.1777
▁Prize	-11.1777
▁TAKAHASHI	-11.1778
▁stem	-11.1778
▁1923	-11.1783
▁Iesada	-11.1785
magistrate	-11.1788
▁Gakko	-11.1788
ground	-11.1793
▁1878	-11.1796
evil	-11.1797
▁Shigehira	-11.1801
▁constitutional	-11.1806
▁ornament	-11.1808
▁Post	-11.1821
▁excell	-11.1834
▁Character	-11.1837
▁Peace	-11.1837
▁guarantee	-11.1837
▁Movement	-11.1837
▁Bound	-11.1837
▁ancestr	-11.1837
▁textbook	-11.1838
▁Corp	-11.1839
▁biography	-11.1839
▁1994	-11.1842
▁1955	-11.1844
▁1948	-11.1844
▁Kanpei	-11.1846
▁kanrei	-11.1849
▁teahouse	-11.185
▁1880	-11.1858
▁listen	-11.186
▁Tadamichi	-11.1863
▁Medic	-11.187
▁HIJIKATA	-11.1896
▁enshrining	-11.1896
▁kilometers	-11.1896
▁kitchen	-11.1896
▁struck	-11.1896
▁siege	-11.1896
▁Tochigi	-11.1897
▁Present	-11.1897
▁horseback	-11.1898
▁Kuranosuke	-11.1899
▁1944	-11.1902
▁1901	-11.1905
This	-11.1909
▁kokyu	-11.1924
still	-11.1944
▁preface	-11.1957
▁sleep	-11.1957
▁propagat	-11.1957
▁barrier	-11.1957
▁parade	-11.1957
▁conclusion	-11.1958
▁species	-11.1959
▁interpret	-11.1972
▁Yoritsuna	-11.1973
▁Sasaki	-11.1977
▁introduce	-11.1994
▁sudden	-11.1999
▁emphasi	-11.2015
▁fulfill	-11.2017
▁suspicion	-11.2017
▁widespread	-11.2017
▁Type	-11.2017
▁ceiling	-11.2017
▁promoting	-11.2017
zhou	-11.2017
▁Himemiko	-11.2017
▁Sarugaku	-11.2017
▁roast	-11.2018
▁exposed	-11.2019
▁window	-11.202
▁Miyazaki	-11.2021
▁Mount	-11.2025
▁jiju	-11.2025
sweet	-11.2031
▁positive	-11.2078
▁Metropolitan	-11.2078
▁network	-11.2078
▁registration	-11.2078
▁subjugation	-11.2078
▁oppress	-11.2078
▁neighborhood	-11.2079
▁Store	-11.2079
▁commentary	-11.2082
▁clay	-11.2085
honzan	-11.2112
▁Foundation	-11.214
▁nowadays	-11.214
▁suspected	-11.214
▁Takarazuka	-11.214
▁viscount	-11.214
NUMA	-11.214
▁Byodo	-11.214
▁Isami	-11.2141
▁data	-11.2145
▁Yoshikage	-11.2152
▁Yukinaga	-11.2157
▁stretch	-11.2164
storey	-11.2164
gakari	-11.2169
naval	-11.2173
▁derive	-11.2178
▁cave	-11.218
▁Kyotanabe	-11.2201
▁meditation	-11.2201
▁participants	-11.2201
okonomiyaki	-11.2201
▁HASHIBA	-11.2201
▁committee	-11.2201
▁Jushiinojo	-11.2202
▁1908	-11.2208
storied	-11.2208
▁tight	-11.2209
▁specter	-11.221
▁fifteenth	-11.221
▁1919	-11.2211
▁delivery	-11.2212
▁brown	-11.2215
▁youngest	-11.2218
▁Yoshioki	-11.2219
▁driver	-11.2219
although	-11.2227
▁decrease	-11.224
▁Initially	-11.2263
▁mixture	-11.2263
▁transmitted	-11.2263
▁wisdom	-11.2263
命	-11.2263
▁Utsunomiya	-11.2263
▁hidden	-11.2264
▁Sometimes	-11.2264
▁impact	-11.2267
▁1985	-11.2271
▁Jinja	-11.2275
▁Yoshitane	-11.2281
upreme	-11.2281
▁Nobuyori	-11.2283
paper	-11.2288
▁SAN	-11.2303
omprehensive	-11.2326
▁circulated	-11.2326
▁subjugate	-11.2326
田	-11.2326
▁Amagasaki	-11.2327
▁Sunpu	-11.2329
▁Sunday	-11.2331
▁1927	-11.2331
▁kagura	-11.2334
▁export	-11.2335
school	-11.2345
grant	-11.235
-18	-11.2357
▁Examples	-11.2389
▁Hospital	-11.2389
▁ISSHIKI	-11.2389
▁continent	-11.2389
▁substantial	-11.2389
▁tumuli	-11.2389
▁violent	-11.2389
▁Daruma	-11.2389
▁justice	-11.2389
▁credit	-11.2389
▁MATSUMOTO	-11.239
▁Hyakunin	-11.2393
▁1972	-11.2396
▁Camp	-11.2397
▁tub	-11.2437
except	-11.244
▁Protection	-11.2452
▁faculty	-11.2452
▁Fukakusa	-11.2452
▁Church	-11.2452
▁load	-11.2453
御	-11.2453
▁loyalty	-11.2455
▁shaved	-11.2456
▁Yugiri	-11.2458
▁Sumimoto	-11.2459
▁delay	-11.2463
▁Tokiyori	-11.2467
amous	-11.2475
▁shift	-11.2482
▁Federation	-11.2516
▁Ritsumeikan	-11.2516
▁circulation	-11.2516
▁dialect	-11.2516
▁etiquette	-11.2516
▁investiture	-11.2516
▁commerce	-11.2516
▁pardoned	-11.2516
▁maintenance	-11.2516
▁Shimbun	-11.2516
▁interior	-11.2516
▁Haihan	-11.252
▁hostage	-11.2521
▁1986	-11.2523
▁symboliz	-11.2571
▁sovereign	-11.2578
▁technical	-11.258
▁Committee	-11.258
▁Medieval	-11.258
▁1573	-11.258
▁seaweed	-11.258
▁external	-11.258
▁preced	-11.2583
food	-11.2601
▁Gofukakusa	-11.2644
▁Demachiyanagi	-11.2644
▁comparison	-11.2644
▁church	-11.2645
▁stole	-11.2645
▁anything	-11.2645
▁rescue	-11.2645
▁Access	-11.2646
▁natto	-11.2649
▁1942	-11.2652
▁Tokushima	-11.2656
▁deliver	-11.2658
Empress	-11.2666
▁regulat	-11.2706
▁negative	-11.2709
▁sanctuary	-11.2709
▁confused	-11.2709
▁precise	-11.2709
▁Style	-11.271
▁sechie	-11.271
▁actress	-11.271
▁native	-11.2714
▁singing	-11.2714
▁1903	-11.2716
▁Mikkyo	-11.2716
▁1969	-11.2717
▁1915	-11.2718
▁ramen	-11.272
▁Koyasan	-11.2721
▁sight	-11.2723
pound	-11.2729
▁preserve	-11.2751
scape	-11.2752
higashi	-11.277
▁bought	-11.2775
▁illegitimate	-11.2775
▁tournament	-11.2775
▁bullet	-11.2775
▁snake	-11.2775
▁Tower	-11.2775
▁precedent	-11.2777
▁milk	-11.2779
▁1953	-11.2782
▁review	-11.2783
▁proof	-11.2785
warrior	-11.2798
generation	-11.2798
▁earthquake	-11.2841
▁penalty	-11.2841
▁YOKO	-11.2841
▁Finance	-11.2841
▁Place	-11.2841
▁poured	-11.2841
▁employee	-11.2842
▁suburb	-11.2842
▁1902	-11.2847
▁HATA	-11.2848
conscious	-11.2849
▁unification	-11.2854
▁possess	-11.2859
sacred	-11.2865
▁demonstrate	-11.2907
▁peninsula	-11.2907
▁phenomenon	-11.2907
▁relief	-11.2907
▁steep	-11.2907
▁storyteller	-11.2907
▁woodblock	-11.2907
▁Tsubone	-11.2907
▁laugh	-11.2908
▁Tree	-11.2908
▁mural	-11.2912
▁1976	-11.2912
▁gable	-11.2915
▁Isshu	-11.2916
▁mold	-11.2928
posthumous	-11.2932
▁frequent	-11.2955
▁feud	-11.2962
▁PiTaPa	-11.2973
▁hierarchy	-11.2973
▁inaugurated	-11.2973
▁rectangular	-11.2973
▁wedding	-11.2973
▁folklore	-11.2973
▁Jushii	-11.2973
▁strange	-11.2974
▁glass	-11.2974
▁cited	-11.2974
▁DAI	-11.2975
▁bitter	-11.2978
▁nominal	-11.2988
daughter	-11.2999
regular	-11.3
meaning	-11.3001
Establish	-11.304
corporate	-11.304
Concerning	-11.3041
▁drunk	-11.3041
▁inferior	-11.3041
▁perspective	-11.3041
▁quoted	-11.3041
▁remember	-11.3041
▁ARAKI	-11.3041
▁balance	-11.3041
▁behalf	-11.3041
▁abdication	-11.3041
▁fox	-11.3046
▁Negoro	-11.3046
Diary	-11.3067
▁acquir	-11.3068
▁attach	-11.3073
stitution	-11.3081
▁manufacture	-11.3083
▁OGASAWARA	-11.3108
▁centuries	-11.3108
▁component	-11.3108
▁easier	-11.3108
し	-11.3108
▁Jimyoin	-11.3108
▁Obama	-11.3108
▁Number	-11.311
▁magic	-11.3111
▁Mochiuji	-11.3112
▁textile	-11.3113
▁boundary	-11.3117
logy	-11.3117
▁prefer	-11.3119
though	-11.3126
craft	-11.3141
▁praise	-11.3153
▁wealth	-11.3165
▁possibly	-11.3176
▁stabiliz	-11.3176
▁CHIBA	-11.3176
▁reduction	-11.3178
▁else	-11.3178
▁contribut	-11.318
▁Tametomo	-11.3182
▁confirm	-11.321
priv	-11.3223
▁authentic	-11.3245
▁encounter	-11.3245
▁relocation	-11.3245
▁treaties	-11.3245
▁Similar	-11.3245
▁1893	-11.3245
▁choice	-11.3245
▁mediation	-11.3248
▁Hosso	-11.325
▁Sugawara	-11.325
▁Vow	-11.3251
▁1924	-11.3251
▁1941	-11.3253
special	-11.3274
priest	-11.3274
faced	-11.3274
rtificial	-11.3314
▁KIKUCHI	-11.3314
▁Traditional	-11.3314
▁initiative	-11.3314
▁Oyamazaki	-11.3314
▁Legend	-11.3314
▁Honzon	-11.3314
▁fusuma	-11.3314
▁beach	-11.3317
▁1913	-11.3325
officer	-11.3344
Konjaku	-11.3345
▁Villa	-11.3379
polishing	-11.3383
▁divorce	-11.3383
▁pioneer	-11.3383
▁heavily	-11.3383
▁furthermore	-11.3383
▁Medicine	-11.3383
▁resort	-11.3383
▁charm	-11.3383
▁scheme	-11.3383
▁annex	-11.3383
▁shakuhachi	-11.3384
▁loan	-11.3385
▁Heizei	-11.3386
▁Maeda	-11.3389
▁considerable	-11.3393
▁Tsukushi	-11.3393
Zoku	-11.3394
▁fix	-11.3413
▁certificate	-11.3453
▁communities	-11.3453
▁unearthed	-11.3453
▁1909	-11.3453
▁proclaimed	-11.3453
▁Gosaga	-11.3453
▁Izanami	-11.3453
▁kelp	-11.3453
▁neck	-11.3454
▁Merit	-11.3455
▁drop	-11.3456
Q	-11.346
province	-11.3485
junior	-11.3485
Masa	-11.3488
▁Amanohashidate	-11.3523
▁assembly	-11.3523
▁diplomacy	-11.3523
▁investigate	-11.3523
▁observation	-11.3523
▁patriarch	-11.3523
▁threw	-11.3523
▁clique	-11.3523
▁Pagoda	-11.3523
▁Joseon	-11.3524
▁distant	-11.3524
▁Ogimachi	-11.3524
▁cedar	-11.3524
▁NAKAHARA	-11.3526
▁1968	-11.3533
▁seeds	-11.3538
▁quit	-11.3554
horse	-11.3558
▁eleven	-11.3584
▁Pilgrimage	-11.3594
▁SERIZAWA	-11.3594
▁ministries	-11.3594
▁negotiate	-11.3594
▁kiln	-11.3594
▁Himiko	-11.3595
▁Aomori	-11.3595
anthologies	-11.3595
▁Born	-11.3597
▁Kegon	-11.3599
▁Play	-11.3601
▁1979	-11.3603
▁1981	-11.3604
▁1932	-11.3604
▁translat	-11.3616
Confucianism	-11.3629
▁conspiracy	-11.3666
▁extraordinary	-11.3666
▁industries	-11.3666
▁brief	-11.3666
▁pleasure	-11.3666
▁knot	-11.3666
▁dawn	-11.3666
▁Sports	-11.3666
▁counties	-11.3668
merging	-11.3673
▁1935	-11.3676
forfeit	-11.3682
▁disappear	-11.3697
▁chopsticks	-11.3738
▁dictionary	-11.3738
▁extensive	-11.3738
▁exactly	-11.3738
▁SAWAMURA	-11.3738
▁obey	-11.3738
fermented	-11.3738
▁dropped	-11.3738
▁manufacturers	-11.374
▁Kikugoro	-11.374
▁Retainers	-11.3741
▁Akamatsu	-11.3742
▁udon	-11.3743
▁fellow	-11.3744
▁1922	-11.3744
▁1906	-11.3745
▁1933	-11.3746
▁1954	-11.3746
Tango	-11.3774
shogunate	-11.378
▁Agricultural	-11.381
▁consumption	-11.381
▁destination	-11.381
▁involvement	-11.381
▁pretext	-11.381
▁geographical	-11.381
▁Zhou	-11.381
KTR	-11.381
▁Gosanjo	-11.381
▁depth	-11.381
▁tsubone	-11.381
▁discuss	-11.3823
serving	-11.3828
▁brid	-11.3838
original	-11.3848
▁Shogoi	-11.385
engraving	-11.3883
▁Industrial	-11.3883
▁SANADA	-11.3883
▁corridor	-11.3883
▁driving	-11.3883
▁handwriting	-11.3883
▁dominated	-11.3883
volving	-11.3883
▁Food	-11.3883
▁YUKI	-11.3883
▁cypress	-11.3883
▁shelter	-11.3883
▁Hannya	-11.3883
▁1921	-11.3892
▁link	-11.3933
ecame	-11.3936
▁journal	-11.3957
▁1992	-11.3957
▁Iwashimizu	-11.3957
▁Sahyoe	-11.3957
▁Shimonoseki	-11.3957
▁Course	-11.3957
▁rendered	-11.3957
▁ensure	-11.3958
▁zuryo	-11.3958
▁Retain	-11.403
Administrative	-11.4031
▁Goryeo	-11.4031
▁KIKKAWA	-11.4031
▁Marutamachi	-11.4031
▁Tamakazura	-11.4031
▁contradict	-11.4031
▁illegal	-11.4031
▁NIWA	-11.4031
▁Chichibu	-11.4031
▁Depot	-11.4031
▁Asakusa	-11.4031
▁Social	-11.4031
▁examine	-11.4031
▁flying	-11.4033
▁Atsutane	-11.4034
▁Isshiki	-11.4034
▁inheritance	-11.4035
▁spoke	-11.4039
tribute	-11.4051
▁reveal	-11.4065
white	-11.4072
▁survive	-11.4082
▁Britain	-11.4105
▁SANJONISHI	-11.4105
▁UTSUNOMIYA	-11.4105
▁arriving	-11.4105
▁climate	-11.4105
▁destruction	-11.4105
▁jewel	-11.4105
▁mysterious	-11.4105
▁1892	-11.4105
▁Sasayama	-11.4105
▁strike	-11.4105
▁absence	-11.4105
▁Club	-11.4105
▁craftsman	-11.4106
▁MIYAKE	-11.4106
▁Chamber	-11.4108
kazari	-11.4109
▁1975	-11.4114
▁hut	-11.4121
`	-11.4147
▁TOKUDAIJI	-11.4181
▁collaborat	-11.4181
▁identify	-11.4181
▁parliament	-11.4181
▁Vietnam	-11.4181
▁freedom	-11.4181
▁Gokuraku	-11.4181
▁liquid	-11.4181
▁Ippon	-11.4181
▁bonito	-11.4181
▁Iruka	-11.4181
▁framework	-11.4181
▁provok	-11.4181
▁Paris	-11.4185
▁1963	-11.4188
▁1952	-11.4189
▁1959	-11.419
▁carrie	-11.4191
keep	-11.4196
▁tune	-11.4198
correspond	-11.4224
power	-11.4224
▁MONONOBE	-11.4256
▁Wisdom	-11.4256
▁dormitory	-11.4256
▁peculiar	-11.4256
▁sexual	-11.4256
▁1984	-11.4256
▁eighteen	-11.4256
▁winning	-11.4257
▁Gohojo	-11.4257
▁Kinema	-11.4257
▁label	-11.4257
▁assets	-11.4257
▁commentaries	-11.4258
▁distinctive	-11.4258
▁jujutsu	-11.426
▁fond	-11.4261
▁blame	-11.4261
▁KIDO	-11.4262
▁exert	-11.4263
▁beads	-11.4263
▁1966	-11.4266
Private	-11.427
▁Transport	-11.4327
▁BANDO	-11.4333
▁Broadcasting	-11.4333
▁Economic	-11.4333
▁TSUCHIMIKADO	-11.4333
▁prosperous	-11.4333
▁Ukifune	-11.4333
義	-11.4333
▁1974	-11.4333
▁refuge	-11.4333
▁phase	-11.4333
▁solve	-11.4341
▁1934	-11.4341
MORI	-11.4341
▁1956	-11.4342
Director	-11.4378
manager	-11.4378
▁forefather	-11.441
▁practitioner	-11.441
▁advised	-11.441
▁ANDO	-11.441
▁naming	-11.441
▁neighbor	-11.4413
▁daikon	-11.4414
▁dam	-11.4424
▁tram	-11.4437
Sonpi	-11.4442
emperor	-11.4456
However	-11.4456
Tanba	-11.4456
▁encourage	-11.4471
▁convenient	-11.4487
▁reconcil	-11.4487
▁sprinkl	-11.4487
▁allegedly	-11.4487
▁emergency	-11.4487
▁quantity	-11.4487
▁HASHIMOTO	-11.4487
▁Located	-11.4487
▁Tamuramaro	-11.4487
▁AZAI	-11.4487
▁recipe	-11.4487
▁MURATA	-11.4487
▁kanpaku	-11.449
▁1957	-11.4496
▁1971	-11.4496
Office	-11.4535
important	-11.4535
▁observe	-11.4542
▁fifteen	-11.4555
▁Archives	-11.4565
▁KOBORI	-11.4565
▁Nevertheless	-11.4565
▁confidence	-11.4565
▁monopoliz	-11.4565
▁pirates	-11.4565
▁scientific	-11.4565
▁skirt	-11.4565
▁structural	-11.4565
▁furious	-11.4565
▁Standing	-11.4565
▁underwent	-11.4565
り	-11.4565
上	-11.4565
▁continuing	-11.4566
▁risk	-11.4568
Complete	-11.4579
collection	-11.4614
waiting	-11.4615
▁whi	-11.4619
▁REIZEI	-11.4644
▁assumption	-11.4644
▁compromise	-11.4644
▁measuring	-11.4644
▁somewhat	-11.4644
▁HIGASHI	-11.4644
▁Edict	-11.4644
▁Kamatari	-11.4644
▁lawsuit	-11.4644
▁Text	-11.4644
▁ninja	-11.4644
▁varied	-11.4644
▁chest	-11.4645
▁odd	-11.4647
▁Light	-11.4648
▁noodle	-11.4668
standing	-11.4682
record	-11.4694
Buddha	-11.4694
▁Earthquake	-11.4723
▁decisive	-11.4723
▁earliest	-11.4723
▁gorgeous	-11.4723
▁happiness	-11.4723
▁mathematics	-11.4723
▁prospered	-11.4723
▁rhythm	-11.4723
▁subsidiary	-11.4723
▁Anthology	-11.4723
▁Location	-11.4723
寺	-11.4723
▁renowned	-11.4723
▁Gokenin	-11.4724
▁oracle	-11.4724
中	-11.4724
▁Yoshinao	-11.4724
皇	-11.4724
village	-11.4775
Uesugi	-11.4775
servant	-11.4775
▁allegiance	-11.4803
▁conservative	-11.4803
▁knead	-11.4803
▁Resigned	-11.4803
▁constant	-11.4803
▁preparing	-11.4803
▁smell	-11.4803
▁danjiri	-11.4803
▁joruri	-11.4803
▁Consider	-11.4804
▁purge	-11.4804
▁remote	-11.4804
▁iemoto	-11.4804
▁seclusion	-11.4804
Ruiju	-11.4804
▁tray	-11.4805
▁preferred	-11.4805
▁extract	-11.4813
*	-11.4856
tumulus	-11.4856
paulownia	-11.4884
▁KAJUJI	-11.4884
▁SHIMIZU	-11.4884
▁discharge	-11.4884
▁disembowelment	-11.4884
▁poverty	-11.4884
▁delicate	-11.4884
▁ADACHI	-11.4884
▁TERA	-11.4884
▁purification	-11.4884
十	-11.4884
▁extant	-11.4884
▁Ukiyoe	-11.4884
宗	-11.4884
▁stance	-11.4886
painting	-11.4938
grandchild	-11.4938
principal	-11.4938
music	-11.4948
▁HASEGAWA	-11.4965
▁NIKAIDO	-11.4965
▁Tathagata	-11.4965
▁brewery	-11.4965
▁dynasties	-11.4965
▁fragment	-11.4965
▁lodging	-11.4965
▁ministry	-11.4965
▁obvious	-11.4965
▁strategic	-11.4965
▁worried	-11.4965
▁1592	-11.4965
▁regret	-11.4966
▁rebuild	-11.4972
complete	-11.5021
▁dedicat	-11.503
lieutenant	-11.5047
▁Children	-11.5047
▁certified	-11.5047
▁cormorant	-11.5047
▁definite	-11.5047
▁supervision	-11.5047
▁Ichinotani	-11.5047
▁Regulation	-11.5047
▁Cordon	-11.5047
▁error	-11.5047
▁score	-11.5047
▁Program	-11.5048
▁mistress	-11.5049
▁chart	-11.5052
▁Conference	-11.513
▁Industry	-11.513
▁Language	-11.513
▁Nowadays	-11.513
▁Organization	-11.513
▁UMEWAKA	-11.513
▁supplied	-11.513
月	-11.513
▁1937	-11.513
▁Craft	-11.513
い	-11.513
▁resumed	-11.513
▁Kuwana	-11.513
▁partially	-11.513
▁casual	-11.513
▁attire	-11.5133
Kinosaki	-11.5135
▁conclud	-11.5173
▁abandon	-11.5173
world	-11.5188
▁extreme	-11.5195
▁Southeast	-11.5205
▁ITAGAKI	-11.5213
▁Nirvana	-11.5213
▁challenge	-11.5213
▁custody	-11.5213
▁omitted	-11.5213
▁punitive	-11.5213
▁troupe	-11.5213
▁Heritage	-11.5213
▁apprais	-11.5213
▁impressed	-11.5213
▁katsudon	-11.5213
▁ocean	-11.5213
▁Gokomatsu	-11.5213
▁Tsukuba	-11.5214
▁spell	-11.5214
designated	-11.5273
▁1.8	-11.5274
é	-11.5297
▁Saturday	-11.5297
▁accurate	-11.5297
▁chronological	-11.5297
▁ensemble	-11.5297
▁intellectual	-11.5297
▁robber	-11.5297
▁victim	-11.5297
▁corrupt	-11.5297
▁patient	-11.5297
▁whereupon	-11.5297
▁mounted	-11.5297
▁summoned	-11.5297
五	-11.5297
▁pretend	-11.5297
▁teeth	-11.5297
▁Hisamitsu	-11.5298
▁desert	-11.5298
▁folded	-11.5298
▁habit	-11.5298
▁YAMAUCHI	-11.5299
plant	-11.5319
▁jar	-11.5326
numera	-11.5333
▁instant	-11.5378
\	-11.5382
▁Sakonoe	-11.5382
▁foodstuff	-11.5382
▁knife	-11.5382
▁necessity	-11.5382
▁dowager	-11.5382
▁radish	-11.5382
▁steel	-11.5382
▁slave	-11.5382
▁Tsugaru	-11.5382
▁Kagetora	-11.5382
▁Koriyama	-11.5383
document	-11.5445
group	-11.5445
especially	-11.5445
volume	-11.5446
free	-11.5452
に	-11.5467
▁Oriental	-11.5467
▁Publishing	-11.5467
▁Tunnel	-11.5467
▁astronomy	-11.5467
▁guild	-11.5467
▁trunk	-11.5467
▁Elders	-11.5467
▁judging	-11.5467
▁Goyozei	-11.5467
▁resolve	-11.5468
▁Information	-11.5468
▁Shugendo	-11.5468
▁Kumiyama	-11.5468
▁theatrical	-11.5468
▁smoke	-11.5468
▁genpuku	-11.5469
Person	-11.5473
▁communicat	-11.5505
black	-11.5532
▁presid	-11.5538
▁Thanks	-11.5554
▁1939	-11.5554
▁1973	-11.5554
▁KINOSHITA	-11.5554
▁drift	-11.5554
▁initiated	-11.5554
▁Monzeki	-11.5554
▁Gregori	-11.5554
▁modified	-11.5554
▁Next	-11.5554
▁Folk	-11.5554
▁Gouda	-11.5554
▁histories	-11.5554
▁YAMAZAKI	-11.5555
▁forgiven	-11.5556
▁Fac	-11.5636
▁KIYOHARA	-11.5641
▁compiling	-11.5641
▁defensive	-11.5641
▁discipline	-11.5641
▁elaborate	-11.5641
▁experiment	-11.5641
▁pregnant	-11.5641
▁unchanged	-11.5641
▁closing	-11.5641
▁drove	-11.5641
▁Eleven	-11.5641
Hyakki	-11.5641
▁guess	-11.5641
公	-11.5641
▁Amity	-11.5641
▁invade	-11.5707
Court	-11.5708
▁KOBAYAKAWA	-11.5728
▁counselor	-11.5728
▁gratitude	-11.5728
▁revolution	-11.5728
▁valley	-11.5728
▁Hongwan	-11.5728
▁Sapporo	-11.5728
▁assault	-11.5728
記	-11.5728
▁weakened	-11.5728
▁Kashiwagi	-11.5728
▁Every	-11.5729
▁stir	-11.573
empt	-11.5756
Four	-11.5797
territory	-11.5797
leader	-11.5798
▁accommodate	-11.5817
▁mushroom	-11.5817
▁pollution	-11.5817
▁Bunmyaku	-11.5817
▁Usually	-11.5817
太	-11.5817
▁relieve	-11.5817
▁HIRATA	-11.5817
▁knee	-11.5817
文	-11.5817
▁clash	-11.5817
▁standpoint	-11.5818
▁till	-11.5818
chamberlain	-11.5887
▁Address	-11.5906
▁Sovereign	-11.5906
▁autonomy	-11.5906
▁excessive	-11.5906
▁guidance	-11.5906
▁participation	-11.5906
▁polished	-11.5906
▁practicing	-11.5906
▁ashigaru	-11.5906
▁himemiko	-11.5906
▁motif	-11.5906
野	-11.5906
長	-11.5906
▁choose	-11.5907
ikazuchi	-11.5911
trip	-11.593
XX	-11.5938
field	-11.5976
▁quick	-11.5978
▁Susano	-11.5979
+	-11.5996
▁SAKUMA	-11.5996
▁bereaved	-11.5996
▁forbidden	-11.5996
NOMIYA	-11.5996
▁substance	-11.5996
▁clerk	-11.5996
▁emotion	-11.5996
▁essence	-11.5996
▁transmission	-11.5996
▁fiber	-11.5996
▁Ninigi	-11.5996
Dainihon	-11.5997
worthy	-11.602
▁differentiate	-11.6021
▁Sekke	-11.6027
cultural	-11.607
fifth	-11.607
accomplishment	-11.6087
▁NDL	-11.6087
▁unexpected	-11.6087
▁Goguryeo	-11.6087
▁carpenter	-11.6087
▁disguise	-11.6087
▁sketch	-11.6087
▁sophisticated	-11.6087
▁stroke	-11.6087
▁Queen	-11.6087
▁barrel	-11.6087
女	-11.6087
▁carving	-11.6087
▁tonsure	-11.6087
ivity	-11.6087
▁valid	-11.6088
▁combat	-11.6089
▁release	-11.6156
MINAMOTO	-11.6163
commander	-11.6163
▁Sculpt	-11.6179
▁wield	-11.6179
▁Particularly	-11.6179
▁chancellor	-11.6179
▁concert	-11.6179
▁graduation	-11.6179
▁grudge	-11.6179
郎	-11.6179
▁nineteen	-11.6179
▁Shimogamo	-11.6179
▁Uhyoe	-11.6179
二	-11.6179
▁Cross	-11.6179
▁loose	-11.6179
▁Movie	-11.6179
▁haikai	-11.6179
▁descent	-11.618
▁whisk	-11.6183
versed	-11.6223
▁convert	-11.6232
stream	-11.6253
sponsored	-11.6271
▁KUTSUKI	-11.6271
▁aesthetic	-11.6271
▁identical	-11.6271
▁inauguration	-11.6271
▁reassigned	-11.6271
▁turmoil	-11.6271
▁Basically	-11.6271
▁Shinpachi	-11.6272
▁Umayado	-11.6272
▁generic	-11.6272
▁timber	-11.6272
▁beverage	-11.6272
▁sliced	-11.6272
▁Drama	-11.6272
▁sashimi	-11.6272
▁prompt	-11.6273
commissioned	-11.6273
▁Jugoi	-11.6274
illustrated	-11.6296
▁organize	-11.6342
onym	-11.6345
piece	-11.6348
retainer	-11.635
First	-11.635
▁TAKASHINA	-11.6365
▁consecutive	-11.6365
▁genuine	-11.6365
▁maneuver	-11.6365
▁platoon	-11.6365
▁thumb	-11.6365
▁Beijing	-11.6365
▁Yonezawa	-11.6365
▁Alliance	-11.6365
▁imagine	-11.6365
▁sarugaku	-11.6365
▁GAMO	-11.6365
▁Kizokuin	-11.6365
▁Compar	-11.6365
正	-11.6365
▁Mission	-11.6365
▁Front	-11.6365
▁Ajari	-11.6365
▁Shoichii	-11.6365
▁Sanada	-11.6366
▁alias	-11.6366
▁Nav	-11.6413
▁devote	-11.6436
Nobunaga	-11.6446
female	-11.6446
▁compli	-11.6452
deposited	-11.6459
▁Passenger	-11.6459
▁calculation	-11.6459
▁conversation	-11.6459
▁patrol	-11.6459
▁synonym	-11.6459
▁commuter	-11.6459
▁Freight	-11.6459
▁memory	-11.6459
▁happy	-11.6459
▁Spain	-11.6459
▁issuance	-11.646
temporary	-11.6539
auxiliary	-11.6555
pository	-11.6555
▁context	-11.6555
▁liberal	-11.6555
▁melody	-11.6555
▁umbrella	-11.6555
元	-11.6555
▁Konparu	-11.6555
▁Newspaper	-11.6555
▁OKAMOTO	-11.6555
▁pledge	-11.6555
▁annotation	-11.6555
▁heritage	-11.6555
▁Azechi	-11.6555
▁Creat	-11.6556
▁predict	-11.6557
hajime	-11.6558
▁weigh	-11.6617
glutinous	-11.6651
▁colleague	-11.6651
▁intervention	-11.6651
▁kamaboko	-11.6651
▁monzeki	-11.6651
▁vendor	-11.6651
▁Instead	-11.6651
▁carriage	-11.6651
▁leap	-11.6651
▁Gakushuin	-11.6651
▁comfort	-11.6651
Gukansho	-11.6651
家	-11.6651
▁protein	-11.6651
▁descend	-11.6703
Commander	-11.6737
Satsuma	-11.6737
阿	-11.6748
≒	-11.6748
▁Quarters	-11.6748
▁Residence	-11.6748
▁Technical	-11.6748
▁appreciation	-11.6748
▁artifacts	-11.6748
▁curtain	-11.6748
▁demesne	-11.6748
▁dialogue	-11.6748
▁strife	-11.6748
▁witness	-11.6748
▁Taruhito	-11.6748
▁assignment	-11.6748
▁Kanpyo	-11.6748
▁Natural	-11.6748
▁geigi	-11.6748
▁courtesy	-11.6748
▁Established	-11.6748
▁harsh	-11.6749
▁remind	-11.6751
▁Judg	-11.6777
close	-11.6839
▁ISBN	-11.6846
▁Mythology	-11.6846
▁demonstration	-11.6846
▁deteriorated	-11.6846
▁eligible	-11.6846
▁misfortune	-11.6846
▁palanquin	-11.6846
▁Kusakabe	-11.6846
▁creature	-11.6846
明	-11.6846
部	-11.6846
▁college	-11.6846
▁Chokusen	-11.6846
▁drown	-11.6846
▁bread	-11.6846
▁Itagaki	-11.6846
▁launch	-11.6904
▁HATTORI	-11.6945
▁KAZANIN	-11.6945
▁MOTOORI	-11.6945
▁advancing	-11.6945
▁disadvantage	-11.6945
▁fittings	-11.6945
▁kebiishi	-11.6945
▁magnificent	-11.6945
▁reconciliation	-11.6945
▁tassel	-11.6945
▁Jitsuroku	-11.6945
▁reappointed	-11.6945
▁Ashihara	-11.6945
▁Sign	-11.6945
cloth	-11.7041
▁enthusiast	-11.7045
▁Communication	-11.7045
▁Religious	-11.7045
▁Seppuku	-11.7045
▁occurrence	-11.7045
▁seclud	-11.7045
▁shrimp	-11.7045
▁significance	-11.7045
▁swordsmanship	-11.7045
小	-11.7045
門	-11.7045
▁allotted	-11.7045
▁1595	-11.7045
生	-11.7045
▁Depend	-11.7045
▁Kamigamo	-11.7045
▁ARAI	-11.7045
▁excuse	-11.7045
▁empty	-11.7045
▁Kabane	-11.7045
▁audit	-11.7046
privileged	-11.7124
study	-11.714
▁grandmother	-11.7146
▁unprecedented	-11.7146
光	-11.7146
brocade	-11.7146
▁Conquest	-11.7146
▁Twenty	-11.7146
▁residing	-11.7146
Thirty	-11.7146
▁unstable	-11.7146
▁SEKI	-11.7146
▁thunder	-11.7146
Muryoju	-11.7147
Matsudaira	-11.7242
equivalent	-11.7242
system	-11.7242
▁disinherit	-11.7248
▁Background	-11.7248
▁maximum	-11.7248
▁plastic	-11.7248
▁reluctant	-11.7248
▁Nakamikado	-11.7248
▁stuck	-11.7248
▁Tsukigase	-11.7248
▁regency	-11.7248
き	-11.7248
▁SAKURA	-11.7248
▁Finally	-11.7248
▁Plain	-11.7248
無	-11.7249
▁visual	-11.7249
building	-11.7338
stronomical	-11.7351
▁Hozonkai	-11.7351
▁Itsukushima	-11.7351
▁counterattack	-11.7351
▁immigrants	-11.7351
▁incorporating	-11.7351
▁Hitotsubashi	-11.7351
▁consumed	-11.7351
▁manifest	-11.7351
▁drain	-11.7351
combining	-11.7351
▁HARADA	-11.7351
▁permit	-11.7351
▁repose	-11.7392
built	-11.7446
Conspiracy	-11.7455
▁ENOMOTO	-11.7455
▁Immediately	-11.7455
▁League	-11.7455
▁operator	-11.7455
▁privatization	-11.7455
▁zodiac	-11.7455
▁collateral	-11.7455
▁vacant	-11.7455
▁literati	-11.7455
▁taboo	-11.7455
▁grasp	-11.7455
▁Nobutora	-11.7455
▁Hajime	-11.7456
▁intervene	-11.7468
▁recommend	-11.7515
Lady	-11.7558
Fujiwara	-11.7558
▁KAJIWARA	-11.756
▁SAEKI	-11.756
▁chestnut	-11.756
▁qualification	-11.756
▁reclamation	-11.756
▁siblings	-11.756
▁Watanabe	-11.756
▁ethnic	-11.756
▁Mercy	-11.756
▁banishment	-11.756
▁confess	-11.756
八	-11.756
▁Bitchu	-11.756
▁Rokujizo	-11.756
▁Common	-11.7561
zamurai	-11.7561
▁accede	-11.7566
▁Except	-11.7639
▁retire	-11.764
student	-11.7665
<	-11.7667
▁OGIMACHISANJO	-11.7667
▁Student	-11.7667
▁amendment	-11.7667
▁betrayal	-11.7667
▁credibility	-11.7667
▁replied	-11.7667
▁volunteer	-11.7667
▁silent	-11.7667
を	-11.7667
安	-11.7667
▁Nyoirin	-11.7667
▁breath	-11.7667
▁coincide	-11.7667
liaison	-11.7667
高	-11.7667
▁Boxer	-11.7667
▁preparator	-11.7667
木	-11.7667
多	-11.7667
pproximately	-11.7713
▁Priv	-11.7756
secretary	-11.7774
powder	-11.7774
palace	-11.7774
城	-11.7774
▁Revolution	-11.7774
▁aggressive	-11.7774
▁confinement	-11.7774
▁legitimacy	-11.7774
▁meritorious	-11.7774
▁pigment	-11.7774
▁WAKE	-11.7774
▁Taoism	-11.7774
▁weekdays	-11.7774
▁lumber	-11.7774
▁devised	-11.7774
▁ARIMA	-11.7775
▁grip	-11.7831
Illustrated	-11.7883
Professor	-11.7883
preliminary	-11.7883
▁Advisor	-11.7883
▁KONISHI	-11.7883
▁auspicious	-11.7883
▁bicycle	-11.7883
▁concentration	-11.7883
▁jealous	-11.7883
▁kuninomiyatsuko	-11.7883
▁mackerel	-11.7883
▁neglect	-11.7883
経	-11.7993
殿	-11.8104
武	-11.8104
事	-11.8217
平	-11.833
下	-11.833
不	-11.8331
和	-11.8445
候	-11.8446
。	-11.8561
尊	-11.8561
造	-11.8679
川	-11.8679
信	-11.8798
年	-11.8798
内	-11.8798
名	-11.8798
ノ	-11.8802
都	-11.8918
と	-11.904
仏	-11.904
宮	-11.904
良	-11.9041
有	-11.9042
原	-11.9164
姫	-11.9289
常	-11.9289
倭	-11.9415
な	-11.9543
比	-11.9544
金	-11.9544
ら	-11.9544
方	-11.9544
る	-11.9673
ん	-11.9673
吉	-11.9673
真	-11.9673
行	-11.9674
久	-11.9805
石	-11.9805
豊	-11.9805
徳	-11.9805
世	-11.9939
海	-11.994
如	-12.0074
師	-12.021
通	-12.021
清	-12.0349
津	-12.049
氏	-12.0633
士	-12.0633
藤	-12.0633
シ	-12.0637
て	-12.0778
ま	-12.0778
く	-12.0925
重	-12.0925
ā	-12.0925
か	-12.0925
[	-12.0965
村	-12.1074
す	-12.1074
定	-12.1074
馬	-12.1074
言	-12.1075
南	-12.1075
以	-12.1076
佐	-12.1226
主	-12.1226
伊	-12.1226
東	-12.1226
書	-12.1226
居	-12.1226
次	-12.138
万	-12.138
社	-12.138
政	-12.1536
蔵	-12.1536
井	-12.1536
臣	-12.1536
志	-12.1536
心	-12.1537
ニ	-12.1539
代	-12.1695
相	-12.1695
百	-12.1695
う	-12.1856
華	-12.1856
申	-12.1856
楽	-12.202
さ	-12.202
朝	-12.202
四	-12.202
手	-12.2187
入	-12.2187
所	-12.2187
ヲ	-12.2194
は	-12.2356
水	-12.2356
前	-12.2529
夜	-12.2704
波	-12.2704
彦	-12.2704
西	-12.2704
も	-12.2704
物	-12.2705
変	-12.2883
古	-12.2883
美	-12.2883
&	-12.7527
–	-12.7822
■	-13.0659
